#map = affine_map<(d0, d1) -> (d0, d1)>
#map1 = affine_map<(d0, d1, d2) -> (d0, d1)>
#map2 = affine_map<(d0, d1, d2) -> (d0, d1, d2)>
#map3 = affine_map<(d0, d1, d2) -> (d1)>
#map4 = affine_map<(d0, d1, d2) -> (d0, d2)>
#map5 = affine_map<(d0, d1, d2, d3) -> (d0, d1, d2, d3)>
#map6 = affine_map<(d0, d1, d2, d3) -> (d0, d1, 0, d3)>
#map7 = affine_map<(d0, d1, d2) -> (d0, 0, 0)>
#map8 = affine_map<(d0, d1, d2) -> (d0, 0, d2)>
#map9 = affine_map<(d0, d1, d2) -> (d0, d1, 0)>
#map10 = affine_map<(d0, d1) -> (0, d1)>
#map11 = affine_map<(d0, d1, d2, d3) -> (d0, 0, d2, d3)>
#map12 = affine_map<(d0, d1, d2, d3, d4) -> (d0, d1, 0, d3, d4)>
#map13 = affine_map<(d0, d1, d2, d3, d4) -> (d0, d1, d2, d3, d4)>
#map14 = affine_map<(d0, d1, d2) -> (0, d1, d2)>
module {
  memref.global "private" constant @__constant_1024x151936xf32 : memref<1024x151936xf32> = dense<0.000000e+00> {alignment = 64 : i64}
  memref.global "private" constant @__constant_1024x8960xf32 : memref<1024x8960xf32> = dense<0.000000e+00> {alignment = 64 : i64}
  memref.global "private" constant @__constant_12x1024x1024xf32 : memref<12x1024x1024xf32> = dense<0.0883883461> {alignment = 64 : i64}
  memref.global "private" constant @__constant_4xi32_0 : memref<4xi32> = dense<[0, 1, 3, 2]> {alignment = 64 : i64}
  memref.global "private" constant @__constant_1024x1024xf32_0 : memref<1024x1024xf32> = dense<0.000000e+00> {alignment = 64 : i64}
  memref.global "private" constant @__constant_1x2x6x1024x128xf32 : memref<1x2x6x1024x128xf32> = dense<0.000000e+00> {alignment = 64 : i64}
  memref.global "private" constant @__constant_4xi32 : memref<4xi32> = dense<[0, 2, 1, 3]> {alignment = 64 : i64}
  memref.global "private" constant @__constant_1024x256xf32 : memref<1024x256xf32> = dense<0.000000e+00> {alignment = 64 : i64}
  memref.global "private" constant @__constant_1024x1536xf32 : memref<1024x1536xf32> = dense<0.000000e+00> {alignment = 64 : i64}
  memref.global "private" constant @__constant_2xi32 : memref<2xi32> = dense<[1, 0]> {alignment = 64 : i64}
  memref.global "private" constant @__constant_1x1024x1xf32 : memref<1x1024x1xf32> = dense<9.99999997E-7> {alignment = 64 : i64}
  memref.global "private" constant @__constant_1x1x1xf32_0 : memref<1x1x1xf32> = dense<6.51041686E-4> {alignment = 64 : i64}
  memref.global "private" constant @__constant_1xf32_1 : memref<1xf32> = dense<6.51041686E-4> {alignment = 64 : i64}
  memref.global "private" constant @__constant_1xf32_0 : memref<1xf32> = dense<1.536000e+03> {alignment = 64 : i64}
  memref.global "private" constant @__constant_1x1x1xf32 : memref<1x1x1xf32> = dense<1.000000e+00> {alignment = 64 : i64}
  memref.global "private" constant @__constant_1xf32 : memref<1xf32> = dense<1.000000e+00> {alignment = 64 : i64}
  memref.global "private" constant @__constant_1x1024x2x64xf32 : memref<1x1024x2x64xf32> = dense<0.000000e+00> {alignment = 64 : i64}
  memref.global "private" constant @__constant_3xi32 : memref<3xi32> = dense<[0, 2, 1]> {alignment = 64 : i64}
  memref.global "private" constant @__constant_1x1x1024xf32 : memref<1x1x1024xf32> = dense<0.000000e+00> {alignment = 64 : i64}
  memref.global "private" constant @__constant_1x64x1xf32 : memref<1x64x1xf32> = dense<0.000000e+00> {alignment = 64 : i64}
  memref.global "private" constant @__constant_1x1x1024x1024xf32_0 : memref<1x1x1024x1024xf32> = dense<-3.40282347E+38> {alignment = 64 : i64}
  memref.global "private" constant @__constant_1x1x1024x1024xf32 : memref<1x1x1024x1024xf32> = dense<0.000000e+00> {alignment = 64 : i64}
  memref.global "private" constant @__constant_1024x1xi64 : memref<1024x1xi64> = dense<"0x00000000000000000100000000000000020000000000000003000000000000000400000000000000050000000000000006000000000000000700000000000000080000000000000009000000000000000A000000000000000B000000000000000C000000000000000D000000000000000E000000000000000F0000000000000010000000000000001100000000000000120000000000000013000000000000001400000000000000150000000000000016000000000000001700000000000000180000000000000019000000000000001A000000000000001B000000000000001C000000000000001D000000000000001E000000000000001F0000000000000020000000000000002100000000000000220000000000000023000000000000002400000000000000250000000000000026000000000000002700000000000000280000000000000029000000000000002A000000000000002B000000000000002C000000000000002D000000000000002E000000000000002F0000000000000030000000000000003100000000000000320000000000000033000000000000003400000000000000350000000000000036000000000000003700000000000000380000000000000039000000000000003A000000000000003B000000000000003C000000000000003D000000000000003E000000000000003F0000000000000040000000000000004100000000000000420000000000000043000000000000004400000000000000450000000000000046000000000000004700000000000000480000000000000049000000000000004A000000000000004B000000000000004C000000000000004D000000000000004E000000000000004F0000000000000050000000000000005100000000000000520000000000000053000000000000005400000000000000550000000000000056000000000000005700000000000000580000000000000059000000000000005A000000000000005B000000000000005C000000000000005D000000000000005E000000000000005F0000000000000060000000000000006100000000000000620000000000000063000000000000006400000000000000650000000000000066000000000000006700000000000000680000000000000069000000000000006A000000000000006B000000000000006C000000000000006D000000000000006E000000000000006F0000000000000070000000000000007100000000000000720000000000000073000000000000007400000000000000750000000000000076000000000000007700000000000000780000000000000079000000000000007A000000000000007B000000000000007C000000000000007D000000000000007E000000000000007F0000000000000080000000000000008100000000000000820000000000000083000000000000008400000000000000850000000000000086000000000000008700000000000000880000000000000089000000000000008A000000000000008B000000000000008C000000000000008D000000000000008E000000000000008F0000000000000090000000000000009100000000000000920000000000000093000000000000009400000000000000950000000000000096000000000000009700000000000000980000000000000099000000000000009A000000000000009B000000000000009C000000000000009D000000000000009E000000000000009F00000000000000A000000000000000A100000000000000A200000000000000A300000000000000A400000000000000A500000000000000A600000000000000A700000000000000A800000000000000A900000000000000AA00000000000000AB00000000000000AC00000000000000AD00000000000000AE00000000000000AF00000000000000B000000000000000B100000000000000B200000000000000B300000000000000B400000000000000B500000000000000B600000000000000B700000000000000B800000000000000B900000000000000BA00000000000000BB00000000000000BC00000000000000BD00000000000000BE00000000000000BF00000000000000C000000000000000C100000000000000C200000000000000C300000000000000C400000000000000C500000000000000C600000000000000C700000000000000C800000000000000C900000000000000CA00000000000000CB00000000000000CC00000000000000CD00000000000000CE00000000000000CF00000000000000D000000000000000D100000000000000D200000000000000D300000000000000D400000000000000D500000000000000D600000000000000D700000000000000D800000000000000D900000000000000DA00000000000000DB00000000000000DC00000000000000DD00000000000000DE00000000000000DF00000000000000E000000000000000E100000000000000E200000000000000E300000000000000E400000000000000E500000000000000E600000000000000E700000000000000E800000000000000E900000000000000EA00000000000000EB00000000000000EC00000000000000ED00000000000000EE00000000000000EF00000000000000F000000000000000F100000000000000F200000000000000F300000000000000F400000000000000F500000000000000F600000000000000F700000000000000F800000000000000F900000000000000FA00000000000000FB00000000000000FC00000000000000FD00000000000000FE00000000000000FF0000000000000000010000000000000101000000000000020100000000000003010000000000000401000000000000050100000000000006010000000000000701000000000000080100000000000009010000000000000A010000000000000B010000000000000C010000000000000D010000000000000E010000000000000F0100000000000010010000000000001101000000000000120100000000000013010000000000001401000000000000150100000000000016010000000000001701000000000000180100000000000019010000000000001A010000000000001B010000000000001C010000000000001D010000000000001E010000000000001F0100000000000020010000000000002101000000000000220100000000000023010000000000002401000000000000250100000000000026010000000000002701000000000000280100000000000029010000000000002A010000000000002B010000000000002C010000000000002D010000000000002E010000000000002F0100000000000030010000000000003101000000000000320100000000000033010000000000003401000000000000350100000000000036010000000000003701000000000000380100000000000039010000000000003A010000000000003B010000000000003C010000000000003D010000000000003E010000000000003F0100000000000040010000000000004101000000000000420100000000000043010000000000004401000000000000450100000000000046010000000000004701000000000000480100000000000049010000000000004A010000000000004B010000000000004C010000000000004D010000000000004E010000000000004F0100000000000050010000000000005101000000000000520100000000000053010000000000005401000000000000550100000000000056010000000000005701000000000000580100000000000059010000000000005A010000000000005B010000000000005C010000000000005D010000000000005E010000000000005F0100000000000060010000000000006101000000000000620100000000000063010000000000006401000000000000650100000000000066010000000000006701000000000000680100000000000069010000000000006A010000000000006B010000000000006C010000000000006D010000000000006E010000000000006F0100000000000070010000000000007101000000000000720100000000000073010000000000007401000000000000750100000000000076010000000000007701000000000000780100000000000079010000000000007A010000000000007B010000000000007C010000000000007D010000000000007E010000000000007F0100000000000080010000000000008101000000000000820100000000000083010000000000008401000000000000850100000000000086010000000000008701000000000000880100000000000089010000000000008A010000000000008B010000000000008C010000000000008D010000000000008E010000000000008F0100000000000090010000000000009101000000000000920100000000000093010000000000009401000000000000950100000000000096010000000000009701000000000000980100000000000099010000000000009A010000000000009B010000000000009C010000000000009D010000000000009E010000000000009F01000000000000A001000000000000A101000000000000A201000000000000A301000000000000A401000000000000A501000000000000A601000000000000A701000000000000A801000000000000A901000000000000AA01000000000000AB01000000000000AC01000000000000AD01000000000000AE01000000000000AF01000000000000B001000000000000B101000000000000B201000000000000B301000000000000B401000000000000B501000000000000B601000000000000B701000000000000B801000000000000B901000000000000BA01000000000000BB01000000000000BC01000000000000BD01000000000000BE01000000000000BF01000000000000C001000000000000C101000000000000C201000000000000C301000000000000C401000000000000C501000000000000C601000000000000C701000000000000C801000000000000C901000000000000CA01000000000000CB01000000000000CC01000000000000CD01000000000000CE01000000000000CF01000000000000D001000000000000D101000000000000D201000000000000D301000000000000D401000000000000D501000000000000D601000000000000D701000000000000D801000000000000D901000000000000DA01000000000000DB01000000000000DC01000000000000DD01000000000000DE01000000000000DF01000000000000E001000000000000E101000000000000E201000000000000E301000000000000E401000000000000E501000000000000E601000000000000E701000000000000E801000000000000E901000000000000EA01000000000000EB01000000000000EC01000000000000ED01000000000000EE01000000000000EF01000000000000F001000000000000F101000000000000F201000000000000F301000000000000F401000000000000F501000000000000F601000000000000F701000000000000F801000000000000F901000000000000FA01000000000000FB01000000000000FC01000000000000FD01000000000000FE01000000000000FF0100000000000000020000000000000102000000000000020200000000000003020000000000000402000000000000050200000000000006020000000000000702000000000000080200000000000009020000000000000A020000000000000B020000000000000C020000000000000D020000000000000E020000000000000F0200000000000010020000000000001102000000000000120200000000000013020000000000001402000000000000150200000000000016020000000000001702000000000000180200000000000019020000000000001A020000000000001B020000000000001C020000000000001D020000000000001E020000000000001F0200000000000020020000000000002102000000000000220200000000000023020000000000002402000000000000250200000000000026020000000000002702000000000000280200000000000029020000000000002A020000000000002B020000000000002C020000000000002D020000000000002E020000000000002F0200000000000030020000000000003102000000000000320200000000000033020000000000003402000000000000350200000000000036020000000000003702000000000000380200000000000039020000000000003A020000000000003B020000000000003C020000000000003D020000000000003E020000000000003F0200000000000040020000000000004102000000000000420200000000000043020000000000004402000000000000450200000000000046020000000000004702000000000000480200000000000049020000000000004A020000000000004B020000000000004C020000000000004D020000000000004E020000000000004F0200000000000050020000000000005102000000000000520200000000000053020000000000005402000000000000550200000000000056020000000000005702000000000000580200000000000059020000000000005A020000000000005B020000000000005C020000000000005D020000000000005E020000000000005F0200000000000060020000000000006102000000000000620200000000000063020000000000006402000000000000650200000000000066020000000000006702000000000000680200000000000069020000000000006A020000000000006B020000000000006C020000000000006D020000000000006E020000000000006F0200000000000070020000000000007102000000000000720200000000000073020000000000007402000000000000750200000000000076020000000000007702000000000000780200000000000079020000000000007A020000000000007B020000000000007C020000000000007D020000000000007E020000000000007F0200000000000080020000000000008102000000000000820200000000000083020000000000008402000000000000850200000000000086020000000000008702000000000000880200000000000089020000000000008A020000000000008B020000000000008C020000000000008D020000000000008E020000000000008F0200000000000090020000000000009102000000000000920200000000000093020000000000009402000000000000950200000000000096020000000000009702000000000000980200000000000099020000000000009A020000000000009B020000000000009C020000000000009D020000000000009E020000000000009F02000000000000A002000000000000A102000000000000A202000000000000A302000000000000A402000000000000A502000000000000A602000000000000A702000000000000A802000000000000A902000000000000AA02000000000000AB02000000000000AC02000000000000AD02000000000000AE02000000000000AF02000000000000B002000000000000B102000000000000B202000000000000B302000000000000B402000000000000B502000000000000B602000000000000B702000000000000B802000000000000B902000000000000BA02000000000000BB02000000000000BC02000000000000BD02000000000000BE02000000000000BF02000000000000C002000000000000C102000000000000C202000000000000C302000000000000C402000000000000C502000000000000C602000000000000C702000000000000C802000000000000C902000000000000CA02000000000000CB02000000000000CC02000000000000CD02000000000000CE02000000000000CF02000000000000D002000000000000D102000000000000D202000000000000D302000000000000D402000000000000D502000000000000D602000000000000D702000000000000D802000000000000D902000000000000DA02000000000000DB02000000000000DC02000000000000DD02000000000000DE02000000000000DF02000000000000E002000000000000E102000000000000E202000000000000E302000000000000E402000000000000E502000000000000E602000000000000E702000000000000E802000000000000E902000000000000EA02000000000000EB02000000000000EC02000000000000ED02000000000000EE02000000000000EF02000000000000F002000000000000F102000000000000F202000000000000F302000000000000F402000000000000F502000000000000F602000000000000F702000000000000F802000000000000F902000000000000FA02000000000000FB02000000000000FC02000000000000FD02000000000000FE02000000000000FF0200000000000000030000000000000103000000000000020300000000000003030000000000000403000000000000050300000000000006030000000000000703000000000000080300000000000009030000000000000A030000000000000B030000000000000C030000000000000D030000000000000E030000000000000F0300000000000010030000000000001103000000000000120300000000000013030000000000001403000000000000150300000000000016030000000000001703000000000000180300000000000019030000000000001A030000000000001B030000000000001C030000000000001D030000000000001E030000000000001F0300000000000020030000000000002103000000000000220300000000000023030000000000002403000000000000250300000000000026030000000000002703000000000000280300000000000029030000000000002A030000000000002B030000000000002C030000000000002D030000000000002E030000000000002F0300000000000030030000000000003103000000000000320300000000000033030000000000003403000000000000350300000000000036030000000000003703000000000000380300000000000039030000000000003A030000000000003B030000000000003C030000000000003D030000000000003E030000000000003F0300000000000040030000000000004103000000000000420300000000000043030000000000004403000000000000450300000000000046030000000000004703000000000000480300000000000049030000000000004A030000000000004B030000000000004C030000000000004D030000000000004E030000000000004F0300000000000050030000000000005103000000000000520300000000000053030000000000005403000000000000550300000000000056030000000000005703000000000000580300000000000059030000000000005A030000000000005B030000000000005C030000000000005D030000000000005E030000000000005F0300000000000060030000000000006103000000000000620300000000000063030000000000006403000000000000650300000000000066030000000000006703000000000000680300000000000069030000000000006A030000000000006B030000000000006C030000000000006D030000000000006E030000000000006F0300000000000070030000000000007103000000000000720300000000000073030000000000007403000000000000750300000000000076030000000000007703000000000000780300000000000079030000000000007A030000000000007B030000000000007C030000000000007D030000000000007E030000000000007F0300000000000080030000000000008103000000000000820300000000000083030000000000008403000000000000850300000000000086030000000000008703000000000000880300000000000089030000000000008A030000000000008B030000000000008C030000000000008D030000000000008E030000000000008F0300000000000090030000000000009103000000000000920300000000000093030000000000009403000000000000950300000000000096030000000000009703000000000000980300000000000099030000000000009A030000000000009B030000000000009C030000000000009D030000000000009E030000000000009F03000000000000A003000000000000A103000000000000A203000000000000A303000000000000A403000000000000A503000000000000A603000000000000A703000000000000A803000000000000A903000000000000AA03000000000000AB03000000000000AC03000000000000AD03000000000000AE03000000000000AF03000000000000B003000000000000B103000000000000B203000000000000B303000000000000B403000000000000B503000000000000B603000000000000B703000000000000B803000000000000B903000000000000BA03000000000000BB03000000000000BC03000000000000BD03000000000000BE03000000000000BF03000000000000C003000000000000C103000000000000C203000000000000C303000000000000C403000000000000C503000000000000C603000000000000C703000000000000C803000000000000C903000000000000CA03000000000000CB03000000000000CC03000000000000CD03000000000000CE03000000000000CF03000000000000D003000000000000D103000000000000D203000000000000D303000000000000D403000000000000D503000000000000D603000000000000D703000000000000D803000000000000D903000000000000DA03000000000000DB03000000000000DC03000000000000DD03000000000000DE03000000000000DF03000000000000E003000000000000E103000000000000E203000000000000E303000000000000E403000000000000E503000000000000E603000000000000E703000000000000E803000000000000E903000000000000EA03000000000000EB03000000000000EC03000000000000ED03000000000000EE03000000000000EF03000000000000F003000000000000F103000000000000F203000000000000F303000000000000F403000000000000F503000000000000F603000000000000F703000000000000F803000000000000F903000000000000FA03000000000000FB03000000000000FC03000000000000FD03000000000000FE03000000000000FF03000000000000"> {alignment = 64 : i64}
  memref.global "private" constant @__constant_1024x1024xf32 : memref<1024x1024xf32> = dense<-3.40282347E+38> {alignment = 64 : i64}
  memref.global "private" constant @__constant_1x1024xi64 : memref<1x1024xi64> = dense<"0x00000000000000000100000000000000020000000000000003000000000000000400000000000000050000000000000006000000000000000700000000000000080000000000000009000000000000000A000000000000000B000000000000000C000000000000000D000000000000000E000000000000000F0000000000000010000000000000001100000000000000120000000000000013000000000000001400000000000000150000000000000016000000000000001700000000000000180000000000000019000000000000001A000000000000001B000000000000001C000000000000001D000000000000001E000000000000001F0000000000000020000000000000002100000000000000220000000000000023000000000000002400000000000000250000000000000026000000000000002700000000000000280000000000000029000000000000002A000000000000002B000000000000002C000000000000002D000000000000002E000000000000002F0000000000000030000000000000003100000000000000320000000000000033000000000000003400000000000000350000000000000036000000000000003700000000000000380000000000000039000000000000003A000000000000003B000000000000003C000000000000003D000000000000003E000000000000003F0000000000000040000000000000004100000000000000420000000000000043000000000000004400000000000000450000000000000046000000000000004700000000000000480000000000000049000000000000004A000000000000004B000000000000004C000000000000004D000000000000004E000000000000004F0000000000000050000000000000005100000000000000520000000000000053000000000000005400000000000000550000000000000056000000000000005700000000000000580000000000000059000000000000005A000000000000005B000000000000005C000000000000005D000000000000005E000000000000005F0000000000000060000000000000006100000000000000620000000000000063000000000000006400000000000000650000000000000066000000000000006700000000000000680000000000000069000000000000006A000000000000006B000000000000006C000000000000006D000000000000006E000000000000006F0000000000000070000000000000007100000000000000720000000000000073000000000000007400000000000000750000000000000076000000000000007700000000000000780000000000000079000000000000007A000000000000007B000000000000007C000000000000007D000000000000007E000000000000007F0000000000000080000000000000008100000000000000820000000000000083000000000000008400000000000000850000000000000086000000000000008700000000000000880000000000000089000000000000008A000000000000008B000000000000008C000000000000008D000000000000008E000000000000008F0000000000000090000000000000009100000000000000920000000000000093000000000000009400000000000000950000000000000096000000000000009700000000000000980000000000000099000000000000009A000000000000009B000000000000009C000000000000009D000000000000009E000000000000009F00000000000000A000000000000000A100000000000000A200000000000000A300000000000000A400000000000000A500000000000000A600000000000000A700000000000000A800000000000000A900000000000000AA00000000000000AB00000000000000AC00000000000000AD00000000000000AE00000000000000AF00000000000000B000000000000000B100000000000000B200000000000000B300000000000000B400000000000000B500000000000000B600000000000000B700000000000000B800000000000000B900000000000000BA00000000000000BB00000000000000BC00000000000000BD00000000000000BE00000000000000BF00000000000000C000000000000000C100000000000000C200000000000000C300000000000000C400000000000000C500000000000000C600000000000000C700000000000000C800000000000000C900000000000000CA00000000000000CB00000000000000CC00000000000000CD00000000000000CE00000000000000CF00000000000000D000000000000000D100000000000000D200000000000000D300000000000000D400000000000000D500000000000000D600000000000000D700000000000000D800000000000000D900000000000000DA00000000000000DB00000000000000DC00000000000000DD00000000000000DE00000000000000DF00000000000000E000000000000000E100000000000000E200000000000000E300000000000000E400000000000000E500000000000000E600000000000000E700000000000000E800000000000000E900000000000000EA00000000000000EB00000000000000EC00000000000000ED00000000000000EE00000000000000EF00000000000000F000000000000000F100000000000000F200000000000000F300000000000000F400000000000000F500000000000000F600000000000000F700000000000000F800000000000000F900000000000000FA00000000000000FB00000000000000FC00000000000000FD00000000000000FE00000000000000FF0000000000000000010000000000000101000000000000020100000000000003010000000000000401000000000000050100000000000006010000000000000701000000000000080100000000000009010000000000000A010000000000000B010000000000000C010000000000000D010000000000000E010000000000000F0100000000000010010000000000001101000000000000120100000000000013010000000000001401000000000000150100000000000016010000000000001701000000000000180100000000000019010000000000001A010000000000001B010000000000001C010000000000001D010000000000001E010000000000001F0100000000000020010000000000002101000000000000220100000000000023010000000000002401000000000000250100000000000026010000000000002701000000000000280100000000000029010000000000002A010000000000002B010000000000002C010000000000002D010000000000002E010000000000002F0100000000000030010000000000003101000000000000320100000000000033010000000000003401000000000000350100000000000036010000000000003701000000000000380100000000000039010000000000003A010000000000003B010000000000003C010000000000003D010000000000003E010000000000003F0100000000000040010000000000004101000000000000420100000000000043010000000000004401000000000000450100000000000046010000000000004701000000000000480100000000000049010000000000004A010000000000004B010000000000004C010000000000004D010000000000004E010000000000004F0100000000000050010000000000005101000000000000520100000000000053010000000000005401000000000000550100000000000056010000000000005701000000000000580100000000000059010000000000005A010000000000005B010000000000005C010000000000005D010000000000005E010000000000005F0100000000000060010000000000006101000000000000620100000000000063010000000000006401000000000000650100000000000066010000000000006701000000000000680100000000000069010000000000006A010000000000006B010000000000006C010000000000006D010000000000006E010000000000006F0100000000000070010000000000007101000000000000720100000000000073010000000000007401000000000000750100000000000076010000000000007701000000000000780100000000000079010000000000007A010000000000007B010000000000007C010000000000007D010000000000007E010000000000007F0100000000000080010000000000008101000000000000820100000000000083010000000000008401000000000000850100000000000086010000000000008701000000000000880100000000000089010000000000008A010000000000008B010000000000008C010000000000008D010000000000008E010000000000008F0100000000000090010000000000009101000000000000920100000000000093010000000000009401000000000000950100000000000096010000000000009701000000000000980100000000000099010000000000009A010000000000009B010000000000009C010000000000009D010000000000009E010000000000009F01000000000000A001000000000000A101000000000000A201000000000000A301000000000000A401000000000000A501000000000000A601000000000000A701000000000000A801000000000000A901000000000000AA01000000000000AB01000000000000AC01000000000000AD01000000000000AE01000000000000AF01000000000000B001000000000000B101000000000000B201000000000000B301000000000000B401000000000000B501000000000000B601000000000000B701000000000000B801000000000000B901000000000000BA01000000000000BB01000000000000BC01000000000000BD01000000000000BE01000000000000BF01000000000000C001000000000000C101000000000000C201000000000000C301000000000000C401000000000000C501000000000000C601000000000000C701000000000000C801000000000000C901000000000000CA01000000000000CB01000000000000CC01000000000000CD01000000000000CE01000000000000CF01000000000000D001000000000000D101000000000000D201000000000000D301000000000000D401000000000000D501000000000000D601000000000000D701000000000000D801000000000000D901000000000000DA01000000000000DB01000000000000DC01000000000000DD01000000000000DE01000000000000DF01000000000000E001000000000000E101000000000000E201000000000000E301000000000000E401000000000000E501000000000000E601000000000000E701000000000000E801000000000000E901000000000000EA01000000000000EB01000000000000EC01000000000000ED01000000000000EE01000000000000EF01000000000000F001000000000000F101000000000000F201000000000000F301000000000000F401000000000000F501000000000000F601000000000000F701000000000000F801000000000000F901000000000000FA01000000000000FB01000000000000FC01000000000000FD01000000000000FE01000000000000FF0100000000000000020000000000000102000000000000020200000000000003020000000000000402000000000000050200000000000006020000000000000702000000000000080200000000000009020000000000000A020000000000000B020000000000000C020000000000000D020000000000000E020000000000000F0200000000000010020000000000001102000000000000120200000000000013020000000000001402000000000000150200000000000016020000000000001702000000000000180200000000000019020000000000001A020000000000001B020000000000001C020000000000001D020000000000001E020000000000001F0200000000000020020000000000002102000000000000220200000000000023020000000000002402000000000000250200000000000026020000000000002702000000000000280200000000000029020000000000002A020000000000002B020000000000002C020000000000002D020000000000002E020000000000002F0200000000000030020000000000003102000000000000320200000000000033020000000000003402000000000000350200000000000036020000000000003702000000000000380200000000000039020000000000003A020000000000003B020000000000003C020000000000003D020000000000003E020000000000003F0200000000000040020000000000004102000000000000420200000000000043020000000000004402000000000000450200000000000046020000000000004702000000000000480200000000000049020000000000004A020000000000004B020000000000004C020000000000004D020000000000004E020000000000004F0200000000000050020000000000005102000000000000520200000000000053020000000000005402000000000000550200000000000056020000000000005702000000000000580200000000000059020000000000005A020000000000005B020000000000005C020000000000005D020000000000005E020000000000005F0200000000000060020000000000006102000000000000620200000000000063020000000000006402000000000000650200000000000066020000000000006702000000000000680200000000000069020000000000006A020000000000006B020000000000006C020000000000006D020000000000006E020000000000006F0200000000000070020000000000007102000000000000720200000000000073020000000000007402000000000000750200000000000076020000000000007702000000000000780200000000000079020000000000007A020000000000007B020000000000007C020000000000007D020000000000007E020000000000007F0200000000000080020000000000008102000000000000820200000000000083020000000000008402000000000000850200000000000086020000000000008702000000000000880200000000000089020000000000008A020000000000008B020000000000008C020000000000008D020000000000008E020000000000008F0200000000000090020000000000009102000000000000920200000000000093020000000000009402000000000000950200000000000096020000000000009702000000000000980200000000000099020000000000009A020000000000009B020000000000009C020000000000009D020000000000009E020000000000009F02000000000000A002000000000000A102000000000000A202000000000000A302000000000000A402000000000000A502000000000000A602000000000000A702000000000000A802000000000000A902000000000000AA02000000000000AB02000000000000AC02000000000000AD02000000000000AE02000000000000AF02000000000000B002000000000000B102000000000000B202000000000000B302000000000000B402000000000000B502000000000000B602000000000000B702000000000000B802000000000000B902000000000000BA02000000000000BB02000000000000BC02000000000000BD02000000000000BE02000000000000BF02000000000000C002000000000000C102000000000000C202000000000000C302000000000000C402000000000000C502000000000000C602000000000000C702000000000000C802000000000000C902000000000000CA02000000000000CB02000000000000CC02000000000000CD02000000000000CE02000000000000CF02000000000000D002000000000000D102000000000000D202000000000000D302000000000000D402000000000000D502000000000000D602000000000000D702000000000000D802000000000000D902000000000000DA02000000000000DB02000000000000DC02000000000000DD02000000000000DE02000000000000DF02000000000000E002000000000000E102000000000000E202000000000000E302000000000000E402000000000000E502000000000000E602000000000000E702000000000000E802000000000000E902000000000000EA02000000000000EB02000000000000EC02000000000000ED02000000000000EE02000000000000EF02000000000000F002000000000000F102000000000000F202000000000000F302000000000000F402000000000000F502000000000000F602000000000000F702000000000000F802000000000000F902000000000000FA02000000000000FB02000000000000FC02000000000000FD02000000000000FE02000000000000FF0200000000000000030000000000000103000000000000020300000000000003030000000000000403000000000000050300000000000006030000000000000703000000000000080300000000000009030000000000000A030000000000000B030000000000000C030000000000000D030000000000000E030000000000000F0300000000000010030000000000001103000000000000120300000000000013030000000000001403000000000000150300000000000016030000000000001703000000000000180300000000000019030000000000001A030000000000001B030000000000001C030000000000001D030000000000001E030000000000001F0300000000000020030000000000002103000000000000220300000000000023030000000000002403000000000000250300000000000026030000000000002703000000000000280300000000000029030000000000002A030000000000002B030000000000002C030000000000002D030000000000002E030000000000002F0300000000000030030000000000003103000000000000320300000000000033030000000000003403000000000000350300000000000036030000000000003703000000000000380300000000000039030000000000003A030000000000003B030000000000003C030000000000003D030000000000003E030000000000003F0300000000000040030000000000004103000000000000420300000000000043030000000000004403000000000000450300000000000046030000000000004703000000000000480300000000000049030000000000004A030000000000004B030000000000004C030000000000004D030000000000004E030000000000004F0300000000000050030000000000005103000000000000520300000000000053030000000000005403000000000000550300000000000056030000000000005703000000000000580300000000000059030000000000005A030000000000005B030000000000005C030000000000005D030000000000005E030000000000005F0300000000000060030000000000006103000000000000620300000000000063030000000000006403000000000000650300000000000066030000000000006703000000000000680300000000000069030000000000006A030000000000006B030000000000006C030000000000006D030000000000006E030000000000006F0300000000000070030000000000007103000000000000720300000000000073030000000000007403000000000000750300000000000076030000000000007703000000000000780300000000000079030000000000007A030000000000007B030000000000007C030000000000007D030000000000007E030000000000007F0300000000000080030000000000008103000000000000820300000000000083030000000000008403000000000000850300000000000086030000000000008703000000000000880300000000000089030000000000008A030000000000008B030000000000008C030000000000008D030000000000008E030000000000008F0300000000000090030000000000009103000000000000920300000000000093030000000000009403000000000000950300000000000096030000000000009703000000000000980300000000000099030000000000009A030000000000009B030000000000009C030000000000009D030000000000009E030000000000009F03000000000000A003000000000000A103000000000000A203000000000000A303000000000000A403000000000000A503000000000000A603000000000000A703000000000000A803000000000000A903000000000000AA03000000000000AB03000000000000AC03000000000000AD03000000000000AE03000000000000AF03000000000000B003000000000000B103000000000000B203000000000000B303000000000000B403000000000000B503000000000000B603000000000000B703000000000000B803000000000000B903000000000000BA03000000000000BB03000000000000BC03000000000000BD03000000000000BE03000000000000BF03000000000000C003000000000000C103000000000000C203000000000000C303000000000000C403000000000000C503000000000000C603000000000000C703000000000000C803000000000000C903000000000000CA03000000000000CB03000000000000CC03000000000000CD03000000000000CE03000000000000CF03000000000000D003000000000000D103000000000000D203000000000000D303000000000000D403000000000000D503000000000000D603000000000000D703000000000000D803000000000000D903000000000000DA03000000000000DB03000000000000DC03000000000000DD03000000000000DE03000000000000DF03000000000000E003000000000000E103000000000000E203000000000000E303000000000000E403000000000000E503000000000000E603000000000000E703000000000000E803000000000000E903000000000000EA03000000000000EB03000000000000EC03000000000000ED03000000000000EE03000000000000EF03000000000000F003000000000000F103000000000000F203000000000000F303000000000000F403000000000000F503000000000000F603000000000000F703000000000000F803000000000000F903000000000000FA03000000000000FB03000000000000FC03000000000000FD03000000000000FE03000000000000FF03000000000000"> {alignment = 64 : i64}
  memref.global "private" constant @__constant_1024xi64 : memref<1024xi64> = dense<"0x00000000000000000100000000000000020000000000000003000000000000000400000000000000050000000000000006000000000000000700000000000000080000000000000009000000000000000A000000000000000B000000000000000C000000000000000D000000000000000E000000000000000F0000000000000010000000000000001100000000000000120000000000000013000000000000001400000000000000150000000000000016000000000000001700000000000000180000000000000019000000000000001A000000000000001B000000000000001C000000000000001D000000000000001E000000000000001F0000000000000020000000000000002100000000000000220000000000000023000000000000002400000000000000250000000000000026000000000000002700000000000000280000000000000029000000000000002A000000000000002B000000000000002C000000000000002D000000000000002E000000000000002F0000000000000030000000000000003100000000000000320000000000000033000000000000003400000000000000350000000000000036000000000000003700000000000000380000000000000039000000000000003A000000000000003B000000000000003C000000000000003D000000000000003E000000000000003F0000000000000040000000000000004100000000000000420000000000000043000000000000004400000000000000450000000000000046000000000000004700000000000000480000000000000049000000000000004A000000000000004B000000000000004C000000000000004D000000000000004E000000000000004F0000000000000050000000000000005100000000000000520000000000000053000000000000005400000000000000550000000000000056000000000000005700000000000000580000000000000059000000000000005A000000000000005B000000000000005C000000000000005D000000000000005E000000000000005F0000000000000060000000000000006100000000000000620000000000000063000000000000006400000000000000650000000000000066000000000000006700000000000000680000000000000069000000000000006A000000000000006B000000000000006C000000000000006D000000000000006E000000000000006F0000000000000070000000000000007100000000000000720000000000000073000000000000007400000000000000750000000000000076000000000000007700000000000000780000000000000079000000000000007A000000000000007B000000000000007C000000000000007D000000000000007E000000000000007F0000000000000080000000000000008100000000000000820000000000000083000000000000008400000000000000850000000000000086000000000000008700000000000000880000000000000089000000000000008A000000000000008B000000000000008C000000000000008D000000000000008E000000000000008F0000000000000090000000000000009100000000000000920000000000000093000000000000009400000000000000950000000000000096000000000000009700000000000000980000000000000099000000000000009A000000000000009B000000000000009C000000000000009D000000000000009E000000000000009F00000000000000A000000000000000A100000000000000A200000000000000A300000000000000A400000000000000A500000000000000A600000000000000A700000000000000A800000000000000A900000000000000AA00000000000000AB00000000000000AC00000000000000AD00000000000000AE00000000000000AF00000000000000B000000000000000B100000000000000B200000000000000B300000000000000B400000000000000B500000000000000B600000000000000B700000000000000B800000000000000B900000000000000BA00000000000000BB00000000000000BC00000000000000BD00000000000000BE00000000000000BF00000000000000C000000000000000C100000000000000C200000000000000C300000000000000C400000000000000C500000000000000C600000000000000C700000000000000C800000000000000C900000000000000CA00000000000000CB00000000000000CC00000000000000CD00000000000000CE00000000000000CF00000000000000D000000000000000D100000000000000D200000000000000D300000000000000D400000000000000D500000000000000D600000000000000D700000000000000D800000000000000D900000000000000DA00000000000000DB00000000000000DC00000000000000DD00000000000000DE00000000000000DF00000000000000E000000000000000E100000000000000E200000000000000E300000000000000E400000000000000E500000000000000E600000000000000E700000000000000E800000000000000E900000000000000EA00000000000000EB00000000000000EC00000000000000ED00000000000000EE00000000000000EF00000000000000F000000000000000F100000000000000F200000000000000F300000000000000F400000000000000F500000000000000F600000000000000F700000000000000F800000000000000F900000000000000FA00000000000000FB00000000000000FC00000000000000FD00000000000000FE00000000000000FF0000000000000000010000000000000101000000000000020100000000000003010000000000000401000000000000050100000000000006010000000000000701000000000000080100000000000009010000000000000A010000000000000B010000000000000C010000000000000D010000000000000E010000000000000F0100000000000010010000000000001101000000000000120100000000000013010000000000001401000000000000150100000000000016010000000000001701000000000000180100000000000019010000000000001A010000000000001B010000000000001C010000000000001D010000000000001E010000000000001F0100000000000020010000000000002101000000000000220100000000000023010000000000002401000000000000250100000000000026010000000000002701000000000000280100000000000029010000000000002A010000000000002B010000000000002C010000000000002D010000000000002E010000000000002F0100000000000030010000000000003101000000000000320100000000000033010000000000003401000000000000350100000000000036010000000000003701000000000000380100000000000039010000000000003A010000000000003B010000000000003C010000000000003D010000000000003E010000000000003F0100000000000040010000000000004101000000000000420100000000000043010000000000004401000000000000450100000000000046010000000000004701000000000000480100000000000049010000000000004A010000000000004B010000000000004C010000000000004D010000000000004E010000000000004F0100000000000050010000000000005101000000000000520100000000000053010000000000005401000000000000550100000000000056010000000000005701000000000000580100000000000059010000000000005A010000000000005B010000000000005C010000000000005D010000000000005E010000000000005F0100000000000060010000000000006101000000000000620100000000000063010000000000006401000000000000650100000000000066010000000000006701000000000000680100000000000069010000000000006A010000000000006B010000000000006C010000000000006D010000000000006E010000000000006F0100000000000070010000000000007101000000000000720100000000000073010000000000007401000000000000750100000000000076010000000000007701000000000000780100000000000079010000000000007A010000000000007B010000000000007C010000000000007D010000000000007E010000000000007F0100000000000080010000000000008101000000000000820100000000000083010000000000008401000000000000850100000000000086010000000000008701000000000000880100000000000089010000000000008A010000000000008B010000000000008C010000000000008D010000000000008E010000000000008F0100000000000090010000000000009101000000000000920100000000000093010000000000009401000000000000950100000000000096010000000000009701000000000000980100000000000099010000000000009A010000000000009B010000000000009C010000000000009D010000000000009E010000000000009F01000000000000A001000000000000A101000000000000A201000000000000A301000000000000A401000000000000A501000000000000A601000000000000A701000000000000A801000000000000A901000000000000AA01000000000000AB01000000000000AC01000000000000AD01000000000000AE01000000000000AF01000000000000B001000000000000B101000000000000B201000000000000B301000000000000B401000000000000B501000000000000B601000000000000B701000000000000B801000000000000B901000000000000BA01000000000000BB01000000000000BC01000000000000BD01000000000000BE01000000000000BF01000000000000C001000000000000C101000000000000C201000000000000C301000000000000C401000000000000C501000000000000C601000000000000C701000000000000C801000000000000C901000000000000CA01000000000000CB01000000000000CC01000000000000CD01000000000000CE01000000000000CF01000000000000D001000000000000D101000000000000D201000000000000D301000000000000D401000000000000D501000000000000D601000000000000D701000000000000D801000000000000D901000000000000DA01000000000000DB01000000000000DC01000000000000DD01000000000000DE01000000000000DF01000000000000E001000000000000E101000000000000E201000000000000E301000000000000E401000000000000E501000000000000E601000000000000E701000000000000E801000000000000E901000000000000EA01000000000000EB01000000000000EC01000000000000ED01000000000000EE01000000000000EF01000000000000F001000000000000F101000000000000F201000000000000F301000000000000F401000000000000F501000000000000F601000000000000F701000000000000F801000000000000F901000000000000FA01000000000000FB01000000000000FC01000000000000FD01000000000000FE01000000000000FF0100000000000000020000000000000102000000000000020200000000000003020000000000000402000000000000050200000000000006020000000000000702000000000000080200000000000009020000000000000A020000000000000B020000000000000C020000000000000D020000000000000E020000000000000F0200000000000010020000000000001102000000000000120200000000000013020000000000001402000000000000150200000000000016020000000000001702000000000000180200000000000019020000000000001A020000000000001B020000000000001C020000000000001D020000000000001E020000000000001F0200000000000020020000000000002102000000000000220200000000000023020000000000002402000000000000250200000000000026020000000000002702000000000000280200000000000029020000000000002A020000000000002B020000000000002C020000000000002D020000000000002E020000000000002F0200000000000030020000000000003102000000000000320200000000000033020000000000003402000000000000350200000000000036020000000000003702000000000000380200000000000039020000000000003A020000000000003B020000000000003C020000000000003D020000000000003E020000000000003F0200000000000040020000000000004102000000000000420200000000000043020000000000004402000000000000450200000000000046020000000000004702000000000000480200000000000049020000000000004A020000000000004B020000000000004C020000000000004D020000000000004E020000000000004F0200000000000050020000000000005102000000000000520200000000000053020000000000005402000000000000550200000000000056020000000000005702000000000000580200000000000059020000000000005A020000000000005B020000000000005C020000000000005D020000000000005E020000000000005F0200000000000060020000000000006102000000000000620200000000000063020000000000006402000000000000650200000000000066020000000000006702000000000000680200000000000069020000000000006A020000000000006B020000000000006C020000000000006D020000000000006E020000000000006F0200000000000070020000000000007102000000000000720200000000000073020000000000007402000000000000750200000000000076020000000000007702000000000000780200000000000079020000000000007A020000000000007B020000000000007C020000000000007D020000000000007E020000000000007F0200000000000080020000000000008102000000000000820200000000000083020000000000008402000000000000850200000000000086020000000000008702000000000000880200000000000089020000000000008A020000000000008B020000000000008C020000000000008D020000000000008E020000000000008F0200000000000090020000000000009102000000000000920200000000000093020000000000009402000000000000950200000000000096020000000000009702000000000000980200000000000099020000000000009A020000000000009B020000000000009C020000000000009D020000000000009E020000000000009F02000000000000A002000000000000A102000000000000A202000000000000A302000000000000A402000000000000A502000000000000A602000000000000A702000000000000A802000000000000A902000000000000AA02000000000000AB02000000000000AC02000000000000AD02000000000000AE02000000000000AF02000000000000B002000000000000B102000000000000B202000000000000B302000000000000B402000000000000B502000000000000B602000000000000B702000000000000B802000000000000B902000000000000BA02000000000000BB02000000000000BC02000000000000BD02000000000000BE02000000000000BF02000000000000C002000000000000C102000000000000C202000000000000C302000000000000C402000000000000C502000000000000C602000000000000C702000000000000C802000000000000C902000000000000CA02000000000000CB02000000000000CC02000000000000CD02000000000000CE02000000000000CF02000000000000D002000000000000D102000000000000D202000000000000D302000000000000D402000000000000D502000000000000D602000000000000D702000000000000D802000000000000D902000000000000DA02000000000000DB02000000000000DC02000000000000DD02000000000000DE02000000000000DF02000000000000E002000000000000E102000000000000E202000000000000E302000000000000E402000000000000E502000000000000E602000000000000E702000000000000E802000000000000E902000000000000EA02000000000000EB02000000000000EC02000000000000ED02000000000000EE02000000000000EF02000000000000F002000000000000F102000000000000F202000000000000F302000000000000F402000000000000F502000000000000F602000000000000F702000000000000F802000000000000F902000000000000FA02000000000000FB02000000000000FC02000000000000FD02000000000000FE02000000000000FF0200000000000000030000000000000103000000000000020300000000000003030000000000000403000000000000050300000000000006030000000000000703000000000000080300000000000009030000000000000A030000000000000B030000000000000C030000000000000D030000000000000E030000000000000F0300000000000010030000000000001103000000000000120300000000000013030000000000001403000000000000150300000000000016030000000000001703000000000000180300000000000019030000000000001A030000000000001B030000000000001C030000000000001D030000000000001E030000000000001F0300000000000020030000000000002103000000000000220300000000000023030000000000002403000000000000250300000000000026030000000000002703000000000000280300000000000029030000000000002A030000000000002B030000000000002C030000000000002D030000000000002E030000000000002F0300000000000030030000000000003103000000000000320300000000000033030000000000003403000000000000350300000000000036030000000000003703000000000000380300000000000039030000000000003A030000000000003B030000000000003C030000000000003D030000000000003E030000000000003F0300000000000040030000000000004103000000000000420300000000000043030000000000004403000000000000450300000000000046030000000000004703000000000000480300000000000049030000000000004A030000000000004B030000000000004C030000000000004D030000000000004E030000000000004F0300000000000050030000000000005103000000000000520300000000000053030000000000005403000000000000550300000000000056030000000000005703000000000000580300000000000059030000000000005A030000000000005B030000000000005C030000000000005D030000000000005E030000000000005F0300000000000060030000000000006103000000000000620300000000000063030000000000006403000000000000650300000000000066030000000000006703000000000000680300000000000069030000000000006A030000000000006B030000000000006C030000000000006D030000000000006E030000000000006F0300000000000070030000000000007103000000000000720300000000000073030000000000007403000000000000750300000000000076030000000000007703000000000000780300000000000079030000000000007A030000000000007B030000000000007C030000000000007D030000000000007E030000000000007F0300000000000080030000000000008103000000000000820300000000000083030000000000008403000000000000850300000000000086030000000000008703000000000000880300000000000089030000000000008A030000000000008B030000000000008C030000000000008D030000000000008E030000000000008F0300000000000090030000000000009103000000000000920300000000000093030000000000009403000000000000950300000000000096030000000000009703000000000000980300000000000099030000000000009A030000000000009B030000000000009C030000000000009D030000000000009E030000000000009F03000000000000A003000000000000A103000000000000A203000000000000A303000000000000A403000000000000A503000000000000A603000000000000A703000000000000A803000000000000A903000000000000AA03000000000000AB03000000000000AC03000000000000AD03000000000000AE03000000000000AF03000000000000B003000000000000B103000000000000B203000000000000B303000000000000B403000000000000B503000000000000B603000000000000B703000000000000B803000000000000B903000000000000BA03000000000000BB03000000000000BC03000000000000BD03000000000000BE03000000000000BF03000000000000C003000000000000C103000000000000C203000000000000C303000000000000C403000000000000C503000000000000C603000000000000C703000000000000C803000000000000C903000000000000CA03000000000000CB03000000000000CC03000000000000CD03000000000000CE03000000000000CF03000000000000D003000000000000D103000000000000D203000000000000D303000000000000D403000000000000D503000000000000D603000000000000D703000000000000D803000000000000D903000000000000DA03000000000000DB03000000000000DC03000000000000DD03000000000000DE03000000000000DF03000000000000E003000000000000E103000000000000E203000000000000E303000000000000E403000000000000E503000000000000E603000000000000E703000000000000E803000000000000E903000000000000EA03000000000000EB03000000000000EC03000000000000ED03000000000000EE03000000000000EF03000000000000F003000000000000F103000000000000F203000000000000F303000000000000F403000000000000F503000000000000F603000000000000F703000000000000F803000000000000F903000000000000FA03000000000000FB03000000000000FC03000000000000FD03000000000000FE03000000000000FF03000000000000"> {alignment = 64 : i64}
  func.func @subgraph0(%arg0: memref<151936x1536xf32, strided<[?, ?], offset: ?>>, %arg1: memref<1x1024xi64, strided<[?, ?], offset: ?>>, %arg2: memref<1x1024xi64, strided<[?, ?], offset: ?>>, %arg3: memref<64xf32, strided<[?], offset: ?>>, %arg4: memref<1536xf32, strided<[?], offset: ?>>, %arg5: memref<1536x1536xf32, strided<[?, ?], offset: ?>>, %arg6: memref<1536xf32, strided<[?], offset: ?>>, %arg7: memref<256x1536xf32, strided<[?, ?], offset: ?>>, %arg8: memref<256xf32, strided<[?], offset: ?>>, %arg9: memref<256x1536xf32, strided<[?, ?], offset: ?>>, %arg10: memref<256xf32, strided<[?], offset: ?>>, %arg11: memref<1536x1536xf32, strided<[?, ?], offset: ?>>, %arg12: memref<1536xf32, strided<[?], offset: ?>>, %arg13: memref<8960x1536xf32, strided<[?, ?], offset: ?>>, %arg14: memref<8960x1536xf32, strided<[?, ?], offset: ?>>, %arg15: memref<1536x8960xf32, strided<[?, ?], offset: ?>>, %arg16: memref<1536xf32, strided<[?], offset: ?>>, %arg17: memref<1536x1536xf32, strided<[?, ?], offset: ?>>, %arg18: memref<1536xf32, strided<[?], offset: ?>>, %arg19: memref<256x1536xf32, strided<[?, ?], offset: ?>>, %arg20: memref<256xf32, strided<[?], offset: ?>>, %arg21: memref<256x1536xf32, strided<[?, ?], offset: ?>>, %arg22: memref<256xf32, strided<[?], offset: ?>>, %arg23: memref<1536x1536xf32, strided<[?, ?], offset: ?>>, %arg24: memref<1536xf32, strided<[?], offset: ?>>, %arg25: memref<8960x1536xf32, strided<[?, ?], offset: ?>>, %arg26: memref<8960x1536xf32, strided<[?, ?], offset: ?>>, %arg27: memref<1536x8960xf32, strided<[?, ?], offset: ?>>, %arg28: memref<1536xf32, strided<[?], offset: ?>>, %arg29: memref<1536x1536xf32, strided<[?, ?], offset: ?>>, %arg30: memref<1536xf32, strided<[?], offset: ?>>, %arg31: memref<256x1536xf32, strided<[?, ?], offset: ?>>, %arg32: memref<256xf32, strided<[?], offset: ?>>, %arg33: memref<256x1536xf32, strided<[?, ?], offset: ?>>, %arg34: memref<256xf32, strided<[?], offset: ?>>, %arg35: memref<1536x1536xf32, strided<[?, ?], offset: ?>>, %arg36: memref<1536xf32, strided<[?], offset: ?>>, %arg37: memref<8960x1536xf32, strided<[?, ?], offset: ?>>, %arg38: memref<8960x1536xf32, strided<[?, ?], offset: ?>>, %arg39: memref<1536x8960xf32, strided<[?, ?], offset: ?>>, %arg40: memref<1536xf32, strided<[?], offset: ?>>, %arg41: memref<1536x1536xf32, strided<[?, ?], offset: ?>>, %arg42: memref<1536xf32, strided<[?], offset: ?>>, %arg43: memref<256x1536xf32, strided<[?, ?], offset: ?>>, %arg44: memref<256xf32, strided<[?], offset: ?>>, %arg45: memref<256x1536xf32, strided<[?, ?], offset: ?>>, %arg46: memref<256xf32, strided<[?], offset: ?>>, %arg47: memref<1536x1536xf32, strided<[?, ?], offset: ?>>, %arg48: memref<1536xf32, strided<[?], offset: ?>>, %arg49: memref<8960x1536xf32, strided<[?, ?], offset: ?>>, %arg50: memref<8960x1536xf32, strided<[?, ?], offset: ?>>, %arg51: memref<1536x8960xf32, strided<[?, ?], offset: ?>>, %arg52: memref<1536xf32, strided<[?], offset: ?>>, %arg53: memref<1536x1536xf32, strided<[?, ?], offset: ?>>, %arg54: memref<1536xf32, strided<[?], offset: ?>>, %arg55: memref<256x1536xf32, strided<[?, ?], offset: ?>>, %arg56: memref<256xf32, strided<[?], offset: ?>>, %arg57: memref<256x1536xf32, strided<[?, ?], offset: ?>>, %arg58: memref<256xf32, strided<[?], offset: ?>>, %arg59: memref<1536x1536xf32, strided<[?, ?], offset: ?>>, %arg60: memref<1536xf32, strided<[?], offset: ?>>, %arg61: memref<8960x1536xf32, strided<[?, ?], offset: ?>>, %arg62: memref<8960x1536xf32, strided<[?, ?], offset: ?>>, %arg63: memref<1536x8960xf32, strided<[?, ?], offset: ?>>, %arg64: memref<1536xf32, strided<[?], offset: ?>>, %arg65: memref<1536x1536xf32, strided<[?, ?], offset: ?>>, %arg66: memref<1536xf32, strided<[?], offset: ?>>, %arg67: memref<256x1536xf32, strided<[?, ?], offset: ?>>, %arg68: memref<256xf32, strided<[?], offset: ?>>, %arg69: memref<256x1536xf32, strided<[?, ?], offset: ?>>, %arg70: memref<256xf32, strided<[?], offset: ?>>, %arg71: memref<1536x1536xf32, strided<[?, ?], offset: ?>>, %arg72: memref<1536xf32, strided<[?], offset: ?>>, %arg73: memref<8960x1536xf32, strided<[?, ?], offset: ?>>, %arg74: memref<8960x1536xf32, strided<[?, ?], offset: ?>>, %arg75: memref<1536x8960xf32, strided<[?, ?], offset: ?>>, %arg76: memref<1536xf32, strided<[?], offset: ?>>, %arg77: memref<1536x1536xf32, strided<[?, ?], offset: ?>>, %arg78: memref<1536xf32, strided<[?], offset: ?>>, %arg79: memref<256x1536xf32, strided<[?, ?], offset: ?>>, %arg80: memref<256xf32, strided<[?], offset: ?>>, %arg81: memref<256x1536xf32, strided<[?, ?], offset: ?>>, %arg82: memref<256xf32, strided<[?], offset: ?>>, %arg83: memref<1536x1536xf32, strided<[?, ?], offset: ?>>, %arg84: memref<1536xf32, strided<[?], offset: ?>>, %arg85: memref<8960x1536xf32, strided<[?, ?], offset: ?>>, %arg86: memref<8960x1536xf32, strided<[?, ?], offset: ?>>, %arg87: memref<1536x8960xf32, strided<[?, ?], offset: ?>>, %arg88: memref<1536xf32, strided<[?], offset: ?>>, %arg89: memref<1536x1536xf32, strided<[?, ?], offset: ?>>, %arg90: memref<1536xf32, strided<[?], offset: ?>>, %arg91: memref<256x1536xf32, strided<[?, ?], offset: ?>>, %arg92: memref<256xf32, strided<[?], offset: ?>>, %arg93: memref<256x1536xf32, strided<[?, ?], offset: ?>>, %arg94: memref<256xf32, strided<[?], offset: ?>>, %arg95: memref<1536x1536xf32, strided<[?, ?], offset: ?>>, %arg96: memref<1536xf32, strided<[?], offset: ?>>, %arg97: memref<8960x1536xf32, strided<[?, ?], offset: ?>>, %arg98: memref<8960x1536xf32, strided<[?, ?], offset: ?>>, %arg99: memref<1536x8960xf32, strided<[?, ?], offset: ?>>, %arg100: memref<1536xf32, strided<[?], offset: ?>>, %arg101: memref<1536x1536xf32, strided<[?, ?], offset: ?>>, %arg102: memref<1536xf32, strided<[?], offset: ?>>, %arg103: memref<256x1536xf32, strided<[?, ?], offset: ?>>, %arg104: memref<256xf32, strided<[?], offset: ?>>, %arg105: memref<256x1536xf32, strided<[?, ?], offset: ?>>, %arg106: memref<256xf32, strided<[?], offset: ?>>, %arg107: memref<1536x1536xf32, strided<[?, ?], offset: ?>>, %arg108: memref<1536xf32, strided<[?], offset: ?>>, %arg109: memref<8960x1536xf32, strided<[?, ?], offset: ?>>, %arg110: memref<8960x1536xf32, strided<[?, ?], offset: ?>>, %arg111: memref<1536x8960xf32, strided<[?, ?], offset: ?>>, %arg112: memref<1536xf32, strided<[?], offset: ?>>, %arg113: memref<1536x1536xf32, strided<[?, ?], offset: ?>>, %arg114: memref<1536xf32, strided<[?], offset: ?>>, %arg115: memref<256x1536xf32, strided<[?, ?], offset: ?>>, %arg116: memref<256xf32, strided<[?], offset: ?>>, %arg117: memref<256x1536xf32, strided<[?, ?], offset: ?>>, %arg118: memref<256xf32, strided<[?], offset: ?>>, %arg119: memref<1536x1536xf32, strided<[?, ?], offset: ?>>, %arg120: memref<1536xf32, strided<[?], offset: ?>>, %arg121: memref<8960x1536xf32, strided<[?, ?], offset: ?>>, %arg122: memref<8960x1536xf32, strided<[?, ?], offset: ?>>, %arg123: memref<1536x8960xf32, strided<[?, ?], offset: ?>>, %arg124: memref<1536xf32, strided<[?], offset: ?>>, %arg125: memref<1536x1536xf32, strided<[?, ?], offset: ?>>, %arg126: memref<1536xf32, strided<[?], offset: ?>>, %arg127: memref<256x1536xf32, strided<[?, ?], offset: ?>>, %arg128: memref<256xf32, strided<[?], offset: ?>>, %arg129: memref<256x1536xf32, strided<[?, ?], offset: ?>>, %arg130: memref<256xf32, strided<[?], offset: ?>>, %arg131: memref<1536x1536xf32, strided<[?, ?], offset: ?>>, %arg132: memref<1536xf32, strided<[?], offset: ?>>, %arg133: memref<8960x1536xf32, strided<[?, ?], offset: ?>>, %arg134: memref<8960x1536xf32, strided<[?, ?], offset: ?>>, %arg135: memref<1536x8960xf32, strided<[?, ?], offset: ?>>, %arg136: memref<1536xf32, strided<[?], offset: ?>>, %arg137: memref<1536x1536xf32, strided<[?, ?], offset: ?>>, %arg138: memref<1536xf32, strided<[?], offset: ?>>, %arg139: memref<256x1536xf32, strided<[?, ?], offset: ?>>, %arg140: memref<256xf32, strided<[?], offset: ?>>, %arg141: memref<256x1536xf32, strided<[?, ?], offset: ?>>, %arg142: memref<256xf32, strided<[?], offset: ?>>, %arg143: memref<1536x1536xf32, strided<[?, ?], offset: ?>>, %arg144: memref<1536xf32, strided<[?], offset: ?>>, %arg145: memref<8960x1536xf32, strided<[?, ?], offset: ?>>, %arg146: memref<8960x1536xf32, strided<[?, ?], offset: ?>>, %arg147: memref<1536x8960xf32, strided<[?, ?], offset: ?>>, %arg148: memref<1536xf32, strided<[?], offset: ?>>, %arg149: memref<1536x1536xf32, strided<[?, ?], offset: ?>>, %arg150: memref<1536xf32, strided<[?], offset: ?>>, %arg151: memref<256x1536xf32, strided<[?, ?], offset: ?>>, %arg152: memref<256xf32, strided<[?], offset: ?>>, %arg153: memref<256x1536xf32, strided<[?, ?], offset: ?>>, %arg154: memref<256xf32, strided<[?], offset: ?>>, %arg155: memref<1536x1536xf32, strided<[?, ?], offset: ?>>, %arg156: memref<1536xf32, strided<[?], offset: ?>>, %arg157: memref<8960x1536xf32, strided<[?, ?], offset: ?>>, %arg158: memref<8960x1536xf32, strided<[?, ?], offset: ?>>, %arg159: memref<1536x8960xf32, strided<[?, ?], offset: ?>>, %arg160: memref<1536xf32, strided<[?], offset: ?>>, %arg161: memref<1536x1536xf32, strided<[?, ?], offset: ?>>, %arg162: memref<1536xf32, strided<[?], offset: ?>>, %arg163: memref<256x1536xf32, strided<[?, ?], offset: ?>>, %arg164: memref<256xf32, strided<[?], offset: ?>>, %arg165: memref<256x1536xf32, strided<[?, ?], offset: ?>>, %arg166: memref<256xf32, strided<[?], offset: ?>>, %arg167: memref<1536x1536xf32, strided<[?, ?], offset: ?>>, %arg168: memref<1536xf32, strided<[?], offset: ?>>, %arg169: memref<8960x1536xf32, strided<[?, ?], offset: ?>>, %arg170: memref<8960x1536xf32, strided<[?, ?], offset: ?>>, %arg171: memref<1536x8960xf32, strided<[?, ?], offset: ?>>, %arg172: memref<1536xf32, strided<[?], offset: ?>>, %arg173: memref<1536x1536xf32, strided<[?, ?], offset: ?>>, %arg174: memref<1536xf32, strided<[?], offset: ?>>, %arg175: memref<256x1536xf32, strided<[?, ?], offset: ?>>, %arg176: memref<256xf32, strided<[?], offset: ?>>, %arg177: memref<256x1536xf32, strided<[?, ?], offset: ?>>, %arg178: memref<256xf32, strided<[?], offset: ?>>, %arg179: memref<1536x1536xf32, strided<[?, ?], offset: ?>>, %arg180: memref<1536xf32, strided<[?], offset: ?>>, %arg181: memref<8960x1536xf32, strided<[?, ?], offset: ?>>, %arg182: memref<8960x1536xf32, strided<[?, ?], offset: ?>>, %arg183: memref<1536x8960xf32, strided<[?, ?], offset: ?>>, %arg184: memref<1536xf32, strided<[?], offset: ?>>, %arg185: memref<1536x1536xf32, strided<[?, ?], offset: ?>>, %arg186: memref<1536xf32, strided<[?], offset: ?>>, %arg187: memref<256x1536xf32, strided<[?, ?], offset: ?>>, %arg188: memref<256xf32, strided<[?], offset: ?>>, %arg189: memref<256x1536xf32, strided<[?, ?], offset: ?>>, %arg190: memref<256xf32, strided<[?], offset: ?>>, %arg191: memref<1536x1536xf32, strided<[?, ?], offset: ?>>, %arg192: memref<1536xf32, strided<[?], offset: ?>>, %arg193: memref<8960x1536xf32, strided<[?, ?], offset: ?>>, %arg194: memref<8960x1536xf32, strided<[?, ?], offset: ?>>, %arg195: memref<1536x8960xf32, strided<[?, ?], offset: ?>>, %arg196: memref<1536xf32, strided<[?], offset: ?>>, %arg197: memref<1536x1536xf32, strided<[?, ?], offset: ?>>, %arg198: memref<1536xf32, strided<[?], offset: ?>>, %arg199: memref<256x1536xf32, strided<[?, ?], offset: ?>>, %arg200: memref<256xf32, strided<[?], offset: ?>>, %arg201: memref<256x1536xf32, strided<[?, ?], offset: ?>>, %arg202: memref<256xf32, strided<[?], offset: ?>>, %arg203: memref<1536x1536xf32, strided<[?, ?], offset: ?>>, %arg204: memref<1536xf32, strided<[?], offset: ?>>, %arg205: memref<8960x1536xf32, strided<[?, ?], offset: ?>>, %arg206: memref<8960x1536xf32, strided<[?, ?], offset: ?>>, %arg207: memref<1536x8960xf32, strided<[?, ?], offset: ?>>, %arg208: memref<1536xf32, strided<[?], offset: ?>>, %arg209: memref<1536x1536xf32, strided<[?, ?], offset: ?>>, %arg210: memref<1536xf32, strided<[?], offset: ?>>, %arg211: memref<256x1536xf32, strided<[?, ?], offset: ?>>, %arg212: memref<256xf32, strided<[?], offset: ?>>, %arg213: memref<256x1536xf32, strided<[?, ?], offset: ?>>, %arg214: memref<256xf32, strided<[?], offset: ?>>, %arg215: memref<1536x1536xf32, strided<[?, ?], offset: ?>>, %arg216: memref<1536xf32, strided<[?], offset: ?>>, %arg217: memref<8960x1536xf32, strided<[?, ?], offset: ?>>, %arg218: memref<8960x1536xf32, strided<[?, ?], offset: ?>>, %arg219: memref<1536x8960xf32, strided<[?, ?], offset: ?>>, %arg220: memref<1536xf32, strided<[?], offset: ?>>, %arg221: memref<1536x1536xf32, strided<[?, ?], offset: ?>>, %arg222: memref<1536xf32, strided<[?], offset: ?>>, %arg223: memref<256x1536xf32, strided<[?, ?], offset: ?>>, %arg224: memref<256xf32, strided<[?], offset: ?>>, %arg225: memref<256x1536xf32, strided<[?, ?], offset: ?>>, %arg226: memref<256xf32, strided<[?], offset: ?>>, %arg227: memref<1536x1536xf32, strided<[?, ?], offset: ?>>, %arg228: memref<1536xf32, strided<[?], offset: ?>>, %arg229: memref<8960x1536xf32, strided<[?, ?], offset: ?>>, %arg230: memref<8960x1536xf32, strided<[?, ?], offset: ?>>, %arg231: memref<1536x8960xf32, strided<[?, ?], offset: ?>>, %arg232: memref<1536xf32, strided<[?], offset: ?>>, %arg233: memref<1536x1536xf32, strided<[?, ?], offset: ?>>, %arg234: memref<1536xf32, strided<[?], offset: ?>>, %arg235: memref<256x1536xf32, strided<[?, ?], offset: ?>>, %arg236: memref<256xf32, strided<[?], offset: ?>>, %arg237: memref<256x1536xf32, strided<[?, ?], offset: ?>>, %arg238: memref<256xf32, strided<[?], offset: ?>>, %arg239: memref<1536x1536xf32, strided<[?, ?], offset: ?>>, %arg240: memref<1536xf32, strided<[?], offset: ?>>, %arg241: memref<8960x1536xf32, strided<[?, ?], offset: ?>>, %arg242: memref<8960x1536xf32, strided<[?, ?], offset: ?>>, %arg243: memref<1536x8960xf32, strided<[?, ?], offset: ?>>, %arg244: memref<1536xf32, strided<[?], offset: ?>>, %arg245: memref<1536x1536xf32, strided<[?, ?], offset: ?>>, %arg246: memref<1536xf32, strided<[?], offset: ?>>, %arg247: memref<256x1536xf32, strided<[?, ?], offset: ?>>, %arg248: memref<256xf32, strided<[?], offset: ?>>, %arg249: memref<256x1536xf32, strided<[?, ?], offset: ?>>, %arg250: memref<256xf32, strided<[?], offset: ?>>, %arg251: memref<1536x1536xf32, strided<[?, ?], offset: ?>>, %arg252: memref<1536xf32, strided<[?], offset: ?>>, %arg253: memref<8960x1536xf32, strided<[?, ?], offset: ?>>, %arg254: memref<8960x1536xf32, strided<[?, ?], offset: ?>>, %arg255: memref<1536x8960xf32, strided<[?, ?], offset: ?>>, %arg256: memref<1536xf32, strided<[?], offset: ?>>, %arg257: memref<1536x1536xf32, strided<[?, ?], offset: ?>>, %arg258: memref<1536xf32, strided<[?], offset: ?>>, %arg259: memref<256x1536xf32, strided<[?, ?], offset: ?>>, %arg260: memref<256xf32, strided<[?], offset: ?>>, %arg261: memref<256x1536xf32, strided<[?, ?], offset: ?>>, %arg262: memref<256xf32, strided<[?], offset: ?>>, %arg263: memref<1536x1536xf32, strided<[?, ?], offset: ?>>, %arg264: memref<1536xf32, strided<[?], offset: ?>>, %arg265: memref<8960x1536xf32, strided<[?, ?], offset: ?>>, %arg266: memref<8960x1536xf32, strided<[?, ?], offset: ?>>, %arg267: memref<1536x8960xf32, strided<[?, ?], offset: ?>>, %arg268: memref<1536xf32, strided<[?], offset: ?>>, %arg269: memref<1536x1536xf32, strided<[?, ?], offset: ?>>, %arg270: memref<1536xf32, strided<[?], offset: ?>>, %arg271: memref<256x1536xf32, strided<[?, ?], offset: ?>>, %arg272: memref<256xf32, strided<[?], offset: ?>>, %arg273: memref<256x1536xf32, strided<[?, ?], offset: ?>>, %arg274: memref<256xf32, strided<[?], offset: ?>>, %arg275: memref<1536x1536xf32, strided<[?, ?], offset: ?>>, %arg276: memref<1536xf32, strided<[?], offset: ?>>, %arg277: memref<8960x1536xf32, strided<[?, ?], offset: ?>>, %arg278: memref<8960x1536xf32, strided<[?, ?], offset: ?>>, %arg279: memref<1536x8960xf32, strided<[?, ?], offset: ?>>, %arg280: memref<1536xf32, strided<[?], offset: ?>>, %arg281: memref<1536x1536xf32, strided<[?, ?], offset: ?>>, %arg282: memref<1536xf32, strided<[?], offset: ?>>, %arg283: memref<256x1536xf32, strided<[?, ?], offset: ?>>, %arg284: memref<256xf32, strided<[?], offset: ?>>, %arg285: memref<256x1536xf32, strided<[?, ?], offset: ?>>, %arg286: memref<256xf32, strided<[?], offset: ?>>, %arg287: memref<1536x1536xf32, strided<[?, ?], offset: ?>>, %arg288: memref<1536xf32, strided<[?], offset: ?>>, %arg289: memref<8960x1536xf32, strided<[?, ?], offset: ?>>, %arg290: memref<8960x1536xf32, strided<[?, ?], offset: ?>>, %arg291: memref<1536x8960xf32, strided<[?, ?], offset: ?>>, %arg292: memref<1536xf32, strided<[?], offset: ?>>, %arg293: memref<1536x1536xf32, strided<[?, ?], offset: ?>>, %arg294: memref<1536xf32, strided<[?], offset: ?>>, %arg295: memref<256x1536xf32, strided<[?, ?], offset: ?>>, %arg296: memref<256xf32, strided<[?], offset: ?>>, %arg297: memref<256x1536xf32, strided<[?, ?], offset: ?>>, %arg298: memref<256xf32, strided<[?], offset: ?>>, %arg299: memref<1536x1536xf32, strided<[?, ?], offset: ?>>, %arg300: memref<1536xf32, strided<[?], offset: ?>>, %arg301: memref<8960x1536xf32, strided<[?, ?], offset: ?>>, %arg302: memref<8960x1536xf32, strided<[?, ?], offset: ?>>, %arg303: memref<1536x8960xf32, strided<[?, ?], offset: ?>>, %arg304: memref<1536xf32, strided<[?], offset: ?>>, %arg305: memref<1536x1536xf32, strided<[?, ?], offset: ?>>, %arg306: memref<1536xf32, strided<[?], offset: ?>>, %arg307: memref<256x1536xf32, strided<[?, ?], offset: ?>>, %arg308: memref<256xf32, strided<[?], offset: ?>>, %arg309: memref<256x1536xf32, strided<[?, ?], offset: ?>>, %arg310: memref<256xf32, strided<[?], offset: ?>>, %arg311: memref<1536x1536xf32, strided<[?, ?], offset: ?>>, %arg312: memref<1536xf32, strided<[?], offset: ?>>, %arg313: memref<8960x1536xf32, strided<[?, ?], offset: ?>>, %arg314: memref<8960x1536xf32, strided<[?, ?], offset: ?>>, %arg315: memref<1536x8960xf32, strided<[?, ?], offset: ?>>, %arg316: memref<1536xf32, strided<[?], offset: ?>>, %arg317: memref<1536x1536xf32, strided<[?, ?], offset: ?>>, %arg318: memref<1536xf32, strided<[?], offset: ?>>, %arg319: memref<256x1536xf32, strided<[?, ?], offset: ?>>, %arg320: memref<256xf32, strided<[?], offset: ?>>, %arg321: memref<256x1536xf32, strided<[?, ?], offset: ?>>, %arg322: memref<256xf32, strided<[?], offset: ?>>, %arg323: memref<1536x1536xf32, strided<[?, ?], offset: ?>>, %arg324: memref<1536xf32, strided<[?], offset: ?>>, %arg325: memref<8960x1536xf32, strided<[?, ?], offset: ?>>, %arg326: memref<8960x1536xf32, strided<[?, ?], offset: ?>>, %arg327: memref<1536x8960xf32, strided<[?, ?], offset: ?>>, %arg328: memref<1536xf32, strided<[?], offset: ?>>, %arg329: memref<1536x1536xf32, strided<[?, ?], offset: ?>>, %arg330: memref<1536xf32, strided<[?], offset: ?>>, %arg331: memref<256x1536xf32, strided<[?, ?], offset: ?>>, %arg332: memref<256xf32, strided<[?], offset: ?>>, %arg333: memref<256x1536xf32, strided<[?, ?], offset: ?>>, %arg334: memref<256xf32, strided<[?], offset: ?>>, %arg335: memref<1536x1536xf32, strided<[?, ?], offset: ?>>, %arg336: memref<1536xf32, strided<[?], offset: ?>>, %arg337: memref<8960x1536xf32, strided<[?, ?], offset: ?>>, %arg338: memref<8960x1536xf32, strided<[?, ?], offset: ?>>, %arg339: memref<1536x8960xf32, strided<[?, ?], offset: ?>>, %arg340: memref<1536xf32, strided<[?], offset: ?>>, %arg341: memref<151936x1536xf32, strided<[?, ?], offset: ?>>) -> memref<1x1024x151936xf32> {
    %alloc = memref.alloc() {alignment = 64 : i64} : memref<1x1024xi32>
    linalg.generic {indexing_maps = [#map, #map], iterator_types = ["parallel", "parallel"]} ins(%arg1 : memref<1x1024xi64, strided<[?, ?], offset: ?>>) outs(%alloc : memref<1x1024xi32>) {
    ^bb0(%in: i64, %out: i32):
      %778 = arith.trunci %in : i64 to i32
      linalg.yield %778 : i32
    }
    %expand_shape = memref.expand_shape %arg0 [[0, 1], [2]] output_shape [1, 151936, 1536] : memref<151936x1536xf32, strided<[?, ?], offset: ?>> into memref<1x151936x1536xf32, strided<[?, ?, ?], offset: ?>>
    %alloc_0 = memref.alloc() {alignment = 64 : i64} : memref<1x1024x1536xf32>
    linalg.generic {indexing_maps = [#map1, #map2], iterator_types = ["parallel", "parallel", "parallel"]} ins(%alloc : memref<1x1024xi32>) outs(%alloc_0 : memref<1x1024x1536xf32>) {
    ^bb0(%in: i32, %out: f32):
      %778 = linalg.index 0 : index
      %779 = arith.index_cast %in : i32 to index
      %780 = linalg.index 2 : index
      %781 = memref.load %expand_shape[%778, %779, %780] : memref<1x151936x1536xf32, strided<[?, ?, ?], offset: ?>>
      linalg.yield %781 : f32
    }
    %0 = memref.get_global @__constant_1024xi64 : memref<1024xi64>
    %1 = memref.get_global @__constant_1x1024xi64 : memref<1x1024xi64>
    %2 = memref.get_global @__constant_1024x1024xf32 : memref<1024x1024xf32>
    %3 = memref.get_global @__constant_1024xi64 : memref<1024xi64>
    %4 = memref.get_global @__constant_1024x1xi64 : memref<1024x1xi64>
    %alloc_1 = memref.alloc() {alignment = 64 : i64} : memref<1024x1024xi1>
    linalg.generic {indexing_maps = [#map3, #map4, #map1], iterator_types = ["parallel", "parallel", "reduction"]} ins(%3, %4 : memref<1024xi64>, memref<1024x1xi64>) outs(%alloc_1 : memref<1024x1024xi1>) {
    ^bb0(%in: i64, %in_3369: i64, %out: i1):
      %778 = arith.cmpi sgt, %in, %in_3369 : i64
      linalg.yield %778 : i1
    }
    %alloc_2 = memref.alloc() {alignment = 64 : i64} : memref<1024x1024xf32>
    linalg.generic {indexing_maps = [#map, #map], iterator_types = ["parallel", "parallel"]} ins(%alloc_1 : memref<1024x1024xi1>) outs(%alloc_2 : memref<1024x1024xf32>) {
    ^bb0(%in: i1, %out: f32):
      %778 = arith.uitofp %in : i1 to f32
      linalg.yield %778 : f32
    }
    %alloc_3 = memref.alloc() {alignment = 64 : i64} : memref<1024x1024xf32>
    linalg.generic {indexing_maps = [#map, #map, #map], iterator_types = ["parallel", "parallel"]} ins(%alloc_2, %2 : memref<1024x1024xf32>, memref<1024x1024xf32>) outs(%alloc_3 : memref<1024x1024xf32>) {
    ^bb0(%in: f32, %in_3369: f32, %out: f32):
      %778 = arith.mulf %in, %in_3369 : f32
      linalg.yield %778 : f32
    }
    %expand_shape_4 = memref.expand_shape %alloc_3 [[0, 1], [2]] output_shape [1, 1024, 1024] : memref<1024x1024xf32> into memref<1x1024x1024xf32>
    %expand_shape_5 = memref.expand_shape %alloc_3 [[0, 1, 2], [3]] output_shape [1, 1, 1024, 1024] : memref<1024x1024xf32> into memref<1x1x1024x1024xf32>
    %5 = memref.get_global @__constant_1x1x1024x1024xf32 : memref<1x1x1024x1024xf32>
    %expand_shape_6 = memref.expand_shape %arg2 [[0, 1], [2]] output_shape [1, 1, 1024] : memref<1x1024xi64, strided<[?, ?], offset: ?>> into memref<1x1x1024xi64, strided<[?, ?, ?], offset: ?>>
    %expand_shape_7 = memref.expand_shape %arg2 [[0, 1, 2], [3]] output_shape [1, 1, 1, 1024] : memref<1x1024xi64, strided<[?, ?], offset: ?>> into memref<1x1x1x1024xi64, strided<[?, ?, ?, ?], offset: ?>>
    %alloc_8 = memref.alloc() {alignment = 64 : i64} : memref<1x1x1x1024xf32>
    linalg.generic {indexing_maps = [#map5, #map5], iterator_types = ["parallel", "parallel", "parallel", "parallel"]} ins(%expand_shape_7 : memref<1x1x1x1024xi64, strided<[?, ?, ?, ?], offset: ?>>) outs(%alloc_8 : memref<1x1x1x1024xf32>) {
    ^bb0(%in: i64, %out: f32):
      %778 = arith.sitofp %in : i64 to f32
      linalg.yield %778 : f32
    }
    %alloc_9 = memref.alloc() {alignment = 64 : i64} : memref<1x1x1024x1024xf32>
    linalg.generic {indexing_maps = [#map5, #map6, #map5], iterator_types = ["parallel", "parallel", "parallel", "parallel"]} ins(%expand_shape_5, %alloc_8 : memref<1x1x1024x1024xf32>, memref<1x1x1x1024xf32>) outs(%alloc_9 : memref<1x1x1024x1024xf32>) {
    ^bb0(%in: f32, %in_3369: f32, %out: f32):
      %778 = arith.addf %in, %in_3369 : f32
      linalg.yield %778 : f32
    }
    %cst = arith.constant 0.000000e+00 : f32
    %6 = memref.get_global @__constant_1x1x1024x1024xf32 : memref<1x1x1024x1024xf32>
    %alloc_10 = memref.alloc() {alignment = 64 : i64} : memref<1x1x1024x1024xi1>
    linalg.generic {indexing_maps = [#map5, #map5, #map5], iterator_types = ["parallel", "parallel", "parallel", "parallel"]} ins(%alloc_9, %6 : memref<1x1x1024x1024xf32>, memref<1x1x1024x1024xf32>) outs(%alloc_10 : memref<1x1x1024x1024xi1>) {
    ^bb0(%in: f32, %in_3369: f32, %out: i1):
      %778 = arith.cmpf oeq, %in, %in_3369 : f32
      linalg.yield %778 : i1
    }
    %cst_11 = arith.constant -3.40282347E+38 : f32
    %alloc_12 = memref.alloc() {alignment = 64 : i64} : memref<1x1x1024x1024xf32>
    %7 = memref.get_global @__constant_1x1x1024x1024xf32_0 : memref<1x1x1024x1024xf32>
    linalg.generic {indexing_maps = [#map5, #map5, #map5, #map5], iterator_types = ["parallel", "parallel", "parallel", "parallel"]} ins(%alloc_10, %7, %expand_shape_5 : memref<1x1x1024x1024xi1>, memref<1x1x1024x1024xf32>, memref<1x1x1024x1024xf32>) outs(%alloc_12 : memref<1x1x1024x1024xf32>) {
    ^bb0(%in: i1, %in_3369: f32, %in_3370: f32, %out: f32):
      %778 = arith.select %in, %in_3369, %in_3370 : f32
      linalg.yield %778 : f32
    }
    linalg.generic {indexing_maps = [#map5, #map5], iterator_types = ["parallel", "parallel", "parallel", "parallel"]} ins(%alloc_12 : memref<1x1x1024x1024xf32>) outs(%expand_shape_5 : memref<1x1x1024x1024xf32>) {
    ^bb0(%in: f32, %out: f32):
      linalg.yield %in : f32
    }
    %expand_shape_13 = memref.expand_shape %arg3 [[0, 1]] output_shape [1, 64] : memref<64xf32, strided<[?], offset: ?>> into memref<1x64xf32, strided<[?, ?], offset: ?>>
    %expand_shape_14 = memref.expand_shape %expand_shape_13 [[0], [1, 2]] output_shape [1, 64, 1] : memref<1x64xf32, strided<[?, ?], offset: ?>> into memref<1x64x1xf32, strided<[?, ?, ?], offset: ?>>
    %8 = memref.get_global @__constant_1x64x1xf32 : memref<1x64x1xf32>
    %expand_shape_15 = memref.expand_shape %1 [[0, 1], [2]] output_shape [1, 1, 1024] : memref<1x1024xi64> into memref<1x1x1024xi64>
    %alloc_16 = memref.alloc() {alignment = 64 : i64} : memref<1x1x1024xf32>
    linalg.generic {indexing_maps = [#map2, #map2], iterator_types = ["parallel", "parallel", "parallel"]} ins(%expand_shape_15 : memref<1x1x1024xi64>) outs(%alloc_16 : memref<1x1x1024xf32>) {
    ^bb0(%in: i64, %out: f32):
      %778 = arith.sitofp %in : i64 to f32
      linalg.yield %778 : f32
    }
    %9 = memref.get_global @__constant_1x64x1xf32 : memref<1x64x1xf32>
    %10 = memref.get_global @__constant_1x1x1024xf32 : memref<1x1x1024xf32>
    %cst_17 = arith.constant 0.000000e+00 : f32
    %alloc_18 = memref.alloc() {alignment = 64 : i64} : memref<1x64x1024xf32>
    linalg.fill ins(%cst_17 : f32) outs(%alloc_18 : memref<1x64x1024xf32>)
    linalg.batch_matmul ins(%expand_shape_14, %alloc_16 : memref<1x64x1xf32, strided<[?, ?, ?], offset: ?>>, memref<1x1x1024xf32>) outs(%alloc_18 : memref<1x64x1024xf32>)
    %11 = memref.get_global @__constant_3xi32 : memref<3xi32>
    %alloc_19 = memref.alloc() {alignment = 64 : i64} : memref<1x1024x64xf32>
    linalg.transpose ins(%alloc_18 : memref<1x64x1024xf32>) outs(%alloc_19 : memref<1x1024x64xf32>) permutation = [0, 2, 1] 
    %expand_shape_20 = memref.expand_shape %alloc_19 [[0], [1, 2], [3]] output_shape [1, 1024, 1, 64] : memref<1x1024x64xf32> into memref<1x1024x1x64xf32>
    %12 = memref.get_global @__constant_1x1024x2x64xf32 : memref<1x1024x2x64xf32>
    %alloc_21 = memref.alloc() {alignment = 64 : i64} : memref<1x1024x2x64xf32>
    linalg.generic {indexing_maps = [#map6, #map5, #map5], iterator_types = ["parallel", "parallel", "parallel", "parallel"]} ins(%expand_shape_20, %12 : memref<1x1024x1x64xf32>, memref<1x1024x2x64xf32>) outs(%alloc_21 : memref<1x1024x2x64xf32>) {
    ^bb0(%in: f32, %in_3369: f32, %out: f32):
      %778 = arith.addf %in, %in_3369 : f32
      linalg.yield %778 : f32
    }
    %collapse_shape = memref.collapse_shape %alloc_21 [[0], [1], [2, 3]] : memref<1x1024x2x64xf32> into memref<1x1024x128xf32>
    %alloc_22 = memref.alloc() {alignment = 64 : i64} : memref<1x1024x128xf32>
    linalg.generic {indexing_maps = [#map2, #map2], iterator_types = ["parallel", "parallel", "parallel"]} ins(%collapse_shape : memref<1x1024x128xf32>) outs(%alloc_22 : memref<1x1024x128xf32>) {
    ^bb0(%in: f32, %out: f32):
      %778 = math.cos %in : f32
      linalg.yield %778 : f32
    }
    linalg.generic {indexing_maps = [#map2, #map2], iterator_types = ["parallel", "parallel", "parallel"]} ins(%collapse_shape : memref<1x1024x128xf32>) outs(%collapse_shape : memref<1x1024x128xf32>) {
    ^bb0(%in: f32, %out: f32):
      %778 = math.sin %in : f32
      linalg.yield %778 : f32
    }
    %13 = memref.get_global @__constant_1xf32 : memref<1xf32>
    %14 = memref.get_global @__constant_1x1x1xf32 : memref<1x1x1xf32>
    %alloc_23 = memref.alloc() {alignment = 64 : i64} : memref<1x1024x128xf32>
    linalg.generic {indexing_maps = [#map2, #map7, #map2], iterator_types = ["parallel", "parallel", "parallel"]} ins(%alloc_22, %14 : memref<1x1024x128xf32>, memref<1x1x1xf32>) outs(%alloc_23 : memref<1x1024x128xf32>) {
    ^bb0(%in: f32, %in_3369: f32, %out: f32):
      %778 = arith.mulf %in, %in_3369 : f32
      linalg.yield %778 : f32
    }
    %15 = memref.get_global @__constant_1xf32 : memref<1xf32>
    %16 = memref.get_global @__constant_1x1x1xf32 : memref<1x1x1xf32>
    %alloc_24 = memref.alloc() {alignment = 64 : i64} : memref<1x1024x128xf32>
    linalg.generic {indexing_maps = [#map2, #map7, #map2], iterator_types = ["parallel", "parallel", "parallel"]} ins(%collapse_shape, %16 : memref<1x1024x128xf32>, memref<1x1x1xf32>) outs(%alloc_24 : memref<1x1024x128xf32>) {
    ^bb0(%in: f32, %in_3369: f32, %out: f32):
      %778 = arith.mulf %in, %in_3369 : f32
      linalg.yield %778 : f32
    }
    %alloc_25 = memref.alloc() {alignment = 64 : i64} : memref<1x1024x1536xf32>
    %c2_i32 = arith.constant 2 : i32
    linalg.generic {indexing_maps = [#map2, #map2], iterator_types = ["parallel", "parallel", "parallel"]} ins(%alloc_0 : memref<1x1024x1536xf32>) outs(%alloc_25 : memref<1x1024x1536xf32>) {
    ^bb0(%in: f32, %out: f32):
      %778 = math.fpowi %in, %c2_i32 : f32, i32
      linalg.yield %778 : f32
    }
    %alloc_26 = memref.alloc() {alignment = 64 : i64} : memref<1x1024xf32>
    %cst_27 = arith.constant 0.000000e+00 : f32
    linalg.fill ins(%cst_27 : f32) outs(%alloc_26 : memref<1x1024xf32>)
    linalg.reduce ins(%alloc_25 : memref<1x1024x1536xf32>) outs(%alloc_26 : memref<1x1024xf32>) dimensions = [2] 
      (%in: f32, %init: f32) {
        %778 = arith.addf %in, %init : f32
        linalg.yield %778 : f32
      }
    %expand_shape_28 = memref.expand_shape %alloc_26 [[0], [1, 2]] output_shape [1, 1024, 1] : memref<1x1024xf32> into memref<1x1024x1xf32>
    %17 = memref.get_global @__constant_1xf32_0 : memref<1xf32>
    %18 = memref.get_global @__constant_1xf32_1 : memref<1xf32>
    %19 = memref.get_global @__constant_1x1x1xf32_0 : memref<1x1x1xf32>
    %alloc_29 = memref.alloc() {alignment = 64 : i64} : memref<1x1024x1xf32>
    linalg.generic {indexing_maps = [#map8, #map2, #map2], iterator_types = ["parallel", "parallel", "parallel"]} ins(%19, %expand_shape_28 : memref<1x1x1xf32>, memref<1x1024x1xf32>) outs(%alloc_29 : memref<1x1024x1xf32>) {
    ^bb0(%in: f32, %in_3369: f32, %out: f32):
      %778 = arith.mulf %in, %in_3369 : f32
      linalg.yield %778 : f32
    }
    %20 = memref.get_global @__constant_1x1024x1xf32 : memref<1x1024x1xf32>
    %alloc_30 = memref.alloc() {alignment = 64 : i64} : memref<1x1024x1xf32>
    linalg.generic {indexing_maps = [#map2, #map2, #map2], iterator_types = ["parallel", "parallel", "parallel"]} ins(%alloc_29, %20 : memref<1x1024x1xf32>, memref<1x1024x1xf32>) outs(%alloc_30 : memref<1x1024x1xf32>) {
    ^bb0(%in: f32, %in_3369: f32, %out: f32):
      %778 = arith.addf %in, %in_3369 : f32
      linalg.yield %778 : f32
    }
    %alloc_31 = memref.alloc() {alignment = 64 : i64} : memref<1x1024x1xf32>
    linalg.generic {indexing_maps = [#map2, #map2], iterator_types = ["parallel", "parallel", "parallel"]} ins(%alloc_30 : memref<1x1024x1xf32>) outs(%alloc_31 : memref<1x1024x1xf32>) {
    ^bb0(%in: f32, %out: f32):
      %778 = math.rsqrt %in : f32
      linalg.yield %778 : f32
    }
    %alloc_32 = memref.alloc() {alignment = 64 : i64} : memref<1x1024x1536xf32>
    linalg.generic {indexing_maps = [#map2, #map9, #map2], iterator_types = ["parallel", "parallel", "parallel"]} ins(%alloc_0, %alloc_31 : memref<1x1024x1536xf32>, memref<1x1024x1xf32>) outs(%alloc_32 : memref<1x1024x1536xf32>) {
    ^bb0(%in: f32, %in_3369: f32, %out: f32):
      %778 = arith.mulf %in, %in_3369 : f32
      linalg.yield %778 : f32
    }
    %expand_shape_33 = memref.expand_shape %arg4 [[0, 1, 2]] output_shape [1, 1, 1536] : memref<1536xf32, strided<[?], offset: ?>> into memref<1x1x1536xf32, strided<[?, ?, ?], offset: ?>>
    %alloc_34 = memref.alloc() {alignment = 64 : i64} : memref<1x1024x1536xf32>
    linalg.generic {indexing_maps = [#map8, #map2, #map2], iterator_types = ["parallel", "parallel", "parallel"]} ins(%expand_shape_33, %alloc_32 : memref<1x1x1536xf32, strided<[?, ?, ?], offset: ?>>, memref<1x1024x1536xf32>) outs(%alloc_34 : memref<1x1024x1536xf32>) {
    ^bb0(%in: f32, %in_3369: f32, %out: f32):
      %778 = arith.mulf %in, %in_3369 : f32
      linalg.yield %778 : f32
    }
    %collapse_shape_35 = memref.collapse_shape %alloc_34 [[0, 1], [2]] : memref<1x1024x1536xf32> into memref<1024x1536xf32>
    %21 = memref.get_global @__constant_2xi32 : memref<2xi32>
    %alloc_36 = memref.alloc() {alignment = 64 : i64} : memref<1536x1536xf32>
    linalg.transpose ins(%arg5 : memref<1536x1536xf32, strided<[?, ?], offset: ?>>) outs(%alloc_36 : memref<1536x1536xf32>) permutation = [1, 0] 
    %22 = memref.get_global @__constant_1024x1536xf32 : memref<1024x1536xf32>
    %alloc_37 = memref.alloc() {alignment = 64 : i64} : memref<1024x1536xf32>
    memref.copy %22, %alloc_37 : memref<1024x1536xf32> to memref<1024x1536xf32>
    linalg.matmul {cast = #linalg.type_fn<cast_signed>} ins(%collapse_shape_35, %alloc_36 : memref<1024x1536xf32>, memref<1536x1536xf32>) outs(%alloc_37 : memref<1024x1536xf32>)
    %expand_shape_38 = memref.expand_shape %arg6 [[0, 1]] output_shape [1, 1536] : memref<1536xf32, strided<[?], offset: ?>> into memref<1x1536xf32, strided<[?, ?], offset: ?>>
    %alloc_39 = memref.alloc() {alignment = 64 : i64} : memref<1024x1536xf32>
    linalg.generic {indexing_maps = [#map10, #map, #map], iterator_types = ["parallel", "parallel"]} ins(%expand_shape_38, %alloc_37 : memref<1x1536xf32, strided<[?, ?], offset: ?>>, memref<1024x1536xf32>) outs(%alloc_39 : memref<1024x1536xf32>) {
    ^bb0(%in: f32, %in_3369: f32, %out: f32):
      %778 = arith.addf %in, %in_3369 : f32
      linalg.yield %778 : f32
    }
    %expand_shape_40 = memref.expand_shape %alloc_39 [[0, 1], [2]] output_shape [1, 1024, 1536] : memref<1024x1536xf32> into memref<1x1024x1536xf32>
    %collapse_shape_41 = memref.collapse_shape %alloc_34 [[0, 1], [2]] : memref<1x1024x1536xf32> into memref<1024x1536xf32>
    %23 = memref.get_global @__constant_2xi32 : memref<2xi32>
    %alloc_42 = memref.alloc() {alignment = 64 : i64} : memref<1536x256xf32>
    linalg.transpose ins(%arg7 : memref<256x1536xf32, strided<[?, ?], offset: ?>>) outs(%alloc_42 : memref<1536x256xf32>) permutation = [1, 0] 
    %24 = memref.get_global @__constant_1024x256xf32 : memref<1024x256xf32>
    %alloc_43 = memref.alloc() {alignment = 64 : i64} : memref<1024x256xf32>
    memref.copy %24, %alloc_43 : memref<1024x256xf32> to memref<1024x256xf32>
    linalg.matmul {cast = #linalg.type_fn<cast_signed>} ins(%collapse_shape_41, %alloc_42 : memref<1024x1536xf32>, memref<1536x256xf32>) outs(%alloc_43 : memref<1024x256xf32>)
    %expand_shape_44 = memref.expand_shape %arg8 [[0, 1]] output_shape [1, 256] : memref<256xf32, strided<[?], offset: ?>> into memref<1x256xf32, strided<[?, ?], offset: ?>>
    %alloc_45 = memref.alloc() {alignment = 64 : i64} : memref<1024x256xf32>
    linalg.generic {indexing_maps = [#map10, #map, #map], iterator_types = ["parallel", "parallel"]} ins(%expand_shape_44, %alloc_43 : memref<1x256xf32, strided<[?, ?], offset: ?>>, memref<1024x256xf32>) outs(%alloc_45 : memref<1024x256xf32>) {
    ^bb0(%in: f32, %in_3369: f32, %out: f32):
      %778 = arith.addf %in, %in_3369 : f32
      linalg.yield %778 : f32
    }
    %expand_shape_46 = memref.expand_shape %alloc_45 [[0, 1], [2]] output_shape [1, 1024, 256] : memref<1024x256xf32> into memref<1x1024x256xf32>
    %collapse_shape_47 = memref.collapse_shape %alloc_34 [[0, 1], [2]] : memref<1x1024x1536xf32> into memref<1024x1536xf32>
    %25 = memref.get_global @__constant_2xi32 : memref<2xi32>
    %alloc_48 = memref.alloc() {alignment = 64 : i64} : memref<1536x256xf32>
    linalg.transpose ins(%arg9 : memref<256x1536xf32, strided<[?, ?], offset: ?>>) outs(%alloc_48 : memref<1536x256xf32>) permutation = [1, 0] 
    %26 = memref.get_global @__constant_1024x256xf32 : memref<1024x256xf32>
    %alloc_49 = memref.alloc() {alignment = 64 : i64} : memref<1024x256xf32>
    memref.copy %26, %alloc_49 : memref<1024x256xf32> to memref<1024x256xf32>
    linalg.matmul {cast = #linalg.type_fn<cast_signed>} ins(%collapse_shape_47, %alloc_48 : memref<1024x1536xf32>, memref<1536x256xf32>) outs(%alloc_49 : memref<1024x256xf32>)
    %expand_shape_50 = memref.expand_shape %arg10 [[0, 1]] output_shape [1, 256] : memref<256xf32, strided<[?], offset: ?>> into memref<1x256xf32, strided<[?, ?], offset: ?>>
    %alloc_51 = memref.alloc() {alignment = 64 : i64} : memref<1024x256xf32>
    linalg.generic {indexing_maps = [#map10, #map, #map], iterator_types = ["parallel", "parallel"]} ins(%expand_shape_50, %alloc_49 : memref<1x256xf32, strided<[?, ?], offset: ?>>, memref<1024x256xf32>) outs(%alloc_51 : memref<1024x256xf32>) {
    ^bb0(%in: f32, %in_3369: f32, %out: f32):
      %778 = arith.addf %in, %in_3369 : f32
      linalg.yield %778 : f32
    }
    %expand_shape_52 = memref.expand_shape %alloc_51 [[0, 1], [2]] output_shape [1, 1024, 256] : memref<1024x256xf32> into memref<1x1024x256xf32>
    %expand_shape_53 = memref.expand_shape %alloc_39 [[0, 1], [2, 3]] output_shape [1, 1024, 12, 128] : memref<1024x1536xf32> into memref<1x1024x12x128xf32>
    %27 = memref.get_global @__constant_4xi32 : memref<4xi32>
    %alloc_54 = memref.alloc() {alignment = 64 : i64} : memref<1x12x1024x128xf32>
    linalg.transpose ins(%expand_shape_53 : memref<1x1024x12x128xf32>) outs(%alloc_54 : memref<1x12x1024x128xf32>) permutation = [0, 2, 1, 3] 
    %expand_shape_55 = memref.expand_shape %alloc_45 [[0, 1], [2, 3]] output_shape [1, 1024, 2, 128] : memref<1024x256xf32> into memref<1x1024x2x128xf32>
    %28 = memref.get_global @__constant_4xi32 : memref<4xi32>
    %alloc_56 = memref.alloc() {alignment = 64 : i64} : memref<1x2x1024x128xf32>
    linalg.transpose ins(%expand_shape_55 : memref<1x1024x2x128xf32>) outs(%alloc_56 : memref<1x2x1024x128xf32>) permutation = [0, 2, 1, 3] 
    %expand_shape_57 = memref.expand_shape %alloc_51 [[0, 1], [2, 3]] output_shape [1, 1024, 2, 128] : memref<1024x256xf32> into memref<1x1024x2x128xf32>
    %29 = memref.get_global @__constant_4xi32 : memref<4xi32>
    %alloc_58 = memref.alloc() {alignment = 64 : i64} : memref<1x2x1024x128xf32>
    linalg.transpose ins(%expand_shape_57 : memref<1x1024x2x128xf32>) outs(%alloc_58 : memref<1x2x1024x128xf32>) permutation = [0, 2, 1, 3] 
    %expand_shape_59 = memref.expand_shape %alloc_23 [[0, 1], [2], [3]] output_shape [1, 1, 1024, 128] : memref<1x1024x128xf32> into memref<1x1x1024x128xf32>
    %expand_shape_60 = memref.expand_shape %alloc_24 [[0, 1], [2], [3]] output_shape [1, 1, 1024, 128] : memref<1x1024x128xf32> into memref<1x1x1024x128xf32>
    %alloc_61 = memref.alloc() {alignment = 64 : i64} : memref<1x12x1024x128xf32>
    linalg.generic {indexing_maps = [#map5, #map11, #map5], iterator_types = ["parallel", "parallel", "parallel", "parallel"]} ins(%alloc_54, %expand_shape_59 : memref<1x12x1024x128xf32>, memref<1x1x1024x128xf32>) outs(%alloc_61 : memref<1x12x1024x128xf32>) {
    ^bb0(%in: f32, %in_3369: f32, %out: f32):
      %778 = arith.mulf %in, %in_3369 : f32
      linalg.yield %778 : f32
    }
    %subview = memref.subview %alloc_54[0, 0, 0, 0] [1, 12, 1024, 64] [1, 1, 1, 1] : memref<1x12x1024x128xf32> to memref<1x12x1024x64xf32, strided<[1572864, 131072, 128, 1]>>
    %subview_62 = memref.subview %alloc_54[0, 0, 0, 64] [1, 12, 1024, 64] [1, 1, 1, 1] : memref<1x12x1024x128xf32> to memref<1x12x1024x64xf32, strided<[1572864, 131072, 128, 1], offset: 64>>
    %alloc_63 = memref.alloc() {alignment = 64 : i64} : memref<1x12x1024x64xf32>
    linalg.negf ins(%subview_62 : memref<1x12x1024x64xf32, strided<[1572864, 131072, 128, 1], offset: 64>>) outs(%alloc_63 : memref<1x12x1024x64xf32>)
    %alloc_64 = memref.alloc() {alignment = 64 : i64} : memref<1x12x1024x128xf32>
    %subview_65 = memref.subview %alloc_64[0, 0, 0, 0] [1, 12, 1024, 64] [1, 1, 1, 1] : memref<1x12x1024x128xf32> to memref<1x12x1024x64xf32, strided<[1572864, 131072, 128, 1]>>
    memref.copy %alloc_63, %subview_65 : memref<1x12x1024x64xf32> to memref<1x12x1024x64xf32, strided<[1572864, 131072, 128, 1]>>
    %subview_66 = memref.subview %alloc_64[0, 0, 0, 64] [1, 12, 1024, 64] [1, 1, 1, 1] : memref<1x12x1024x128xf32> to memref<1x12x1024x64xf32, strided<[1572864, 131072, 128, 1], offset: 64>>
    memref.copy %subview, %subview_66 : memref<1x12x1024x64xf32, strided<[1572864, 131072, 128, 1]>> to memref<1x12x1024x64xf32, strided<[1572864, 131072, 128, 1], offset: 64>>
    %alloc_67 = memref.alloc() {alignment = 64 : i64} : memref<1x12x1024x128xf32>
    linalg.generic {indexing_maps = [#map5, #map11, #map5], iterator_types = ["parallel", "parallel", "parallel", "parallel"]} ins(%alloc_64, %expand_shape_60 : memref<1x12x1024x128xf32>, memref<1x1x1024x128xf32>) outs(%alloc_67 : memref<1x12x1024x128xf32>) {
    ^bb0(%in: f32, %in_3369: f32, %out: f32):
      %778 = arith.mulf %in, %in_3369 : f32
      linalg.yield %778 : f32
    }
    %alloc_68 = memref.alloc() {alignment = 64 : i64} : memref<1x12x1024x128xf32>
    linalg.generic {indexing_maps = [#map5, #map5, #map5], iterator_types = ["parallel", "parallel", "parallel", "parallel"]} ins(%alloc_61, %alloc_67 : memref<1x12x1024x128xf32>, memref<1x12x1024x128xf32>) outs(%alloc_68 : memref<1x12x1024x128xf32>) {
    ^bb0(%in: f32, %in_3369: f32, %out: f32):
      %778 = arith.addf %in, %in_3369 : f32
      linalg.yield %778 : f32
    }
    %alloc_69 = memref.alloc() {alignment = 64 : i64} : memref<1x2x1024x128xf32>
    linalg.generic {indexing_maps = [#map5, #map11, #map5], iterator_types = ["parallel", "parallel", "parallel", "parallel"]} ins(%alloc_56, %expand_shape_59 : memref<1x2x1024x128xf32>, memref<1x1x1024x128xf32>) outs(%alloc_69 : memref<1x2x1024x128xf32>) {
    ^bb0(%in: f32, %in_3369: f32, %out: f32):
      %778 = arith.mulf %in, %in_3369 : f32
      linalg.yield %778 : f32
    }
    %subview_70 = memref.subview %alloc_56[0, 0, 0, 0] [1, 2, 1024, 64] [1, 1, 1, 1] : memref<1x2x1024x128xf32> to memref<1x2x1024x64xf32, strided<[262144, 131072, 128, 1]>>
    %subview_71 = memref.subview %alloc_56[0, 0, 0, 64] [1, 2, 1024, 64] [1, 1, 1, 1] : memref<1x2x1024x128xf32> to memref<1x2x1024x64xf32, strided<[262144, 131072, 128, 1], offset: 64>>
    %alloc_72 = memref.alloc() {alignment = 64 : i64} : memref<1x2x1024x64xf32>
    linalg.negf ins(%subview_71 : memref<1x2x1024x64xf32, strided<[262144, 131072, 128, 1], offset: 64>>) outs(%alloc_72 : memref<1x2x1024x64xf32>)
    %alloc_73 = memref.alloc() {alignment = 64 : i64} : memref<1x2x1024x128xf32>
    %subview_74 = memref.subview %alloc_73[0, 0, 0, 0] [1, 2, 1024, 64] [1, 1, 1, 1] : memref<1x2x1024x128xf32> to memref<1x2x1024x64xf32, strided<[262144, 131072, 128, 1]>>
    memref.copy %alloc_72, %subview_74 : memref<1x2x1024x64xf32> to memref<1x2x1024x64xf32, strided<[262144, 131072, 128, 1]>>
    %subview_75 = memref.subview %alloc_73[0, 0, 0, 64] [1, 2, 1024, 64] [1, 1, 1, 1] : memref<1x2x1024x128xf32> to memref<1x2x1024x64xf32, strided<[262144, 131072, 128, 1], offset: 64>>
    memref.copy %subview_70, %subview_75 : memref<1x2x1024x64xf32, strided<[262144, 131072, 128, 1]>> to memref<1x2x1024x64xf32, strided<[262144, 131072, 128, 1], offset: 64>>
    %alloc_76 = memref.alloc() {alignment = 64 : i64} : memref<1x2x1024x128xf32>
    linalg.generic {indexing_maps = [#map5, #map11, #map5], iterator_types = ["parallel", "parallel", "parallel", "parallel"]} ins(%alloc_73, %expand_shape_60 : memref<1x2x1024x128xf32>, memref<1x1x1024x128xf32>) outs(%alloc_76 : memref<1x2x1024x128xf32>) {
    ^bb0(%in: f32, %in_3369: f32, %out: f32):
      %778 = arith.mulf %in, %in_3369 : f32
      linalg.yield %778 : f32
    }
    %alloc_77 = memref.alloc() {alignment = 64 : i64} : memref<1x2x1024x128xf32>
    linalg.generic {indexing_maps = [#map5, #map5, #map5], iterator_types = ["parallel", "parallel", "parallel", "parallel"]} ins(%alloc_69, %alloc_76 : memref<1x2x1024x128xf32>, memref<1x2x1024x128xf32>) outs(%alloc_77 : memref<1x2x1024x128xf32>) {
    ^bb0(%in: f32, %in_3369: f32, %out: f32):
      %778 = arith.addf %in, %in_3369 : f32
      linalg.yield %778 : f32
    }
    %expand_shape_78 = memref.expand_shape %alloc_77 [[0], [1, 2], [3], [4]] output_shape [1, 2, 1, 1024, 128] : memref<1x2x1024x128xf32> into memref<1x2x1x1024x128xf32>
    %30 = memref.get_global @__constant_1x2x6x1024x128xf32 : memref<1x2x6x1024x128xf32>
    %alloc_79 = memref.alloc() {alignment = 64 : i64} : memref<1x2x6x1024x128xf32>
    linalg.generic {indexing_maps = [#map12, #map13, #map13], iterator_types = ["parallel", "parallel", "parallel", "parallel", "parallel"]} ins(%expand_shape_78, %30 : memref<1x2x1x1024x128xf32>, memref<1x2x6x1024x128xf32>) outs(%alloc_79 : memref<1x2x6x1024x128xf32>) {
    ^bb0(%in: f32, %in_3369: f32, %out: f32):
      %778 = arith.addf %in, %in_3369 : f32
      linalg.yield %778 : f32
    }
    %collapse_shape_80 = memref.collapse_shape %alloc_79 [[0], [1, 2], [3], [4]] : memref<1x2x6x1024x128xf32> into memref<1x12x1024x128xf32>
    %expand_shape_81 = memref.expand_shape %alloc_58 [[0], [1, 2], [3], [4]] output_shape [1, 2, 1, 1024, 128] : memref<1x2x1024x128xf32> into memref<1x2x1x1024x128xf32>
    %31 = memref.get_global @__constant_1x2x6x1024x128xf32 : memref<1x2x6x1024x128xf32>
    %alloc_82 = memref.alloc() {alignment = 64 : i64} : memref<1x2x6x1024x128xf32>
    linalg.generic {indexing_maps = [#map12, #map13, #map13], iterator_types = ["parallel", "parallel", "parallel", "parallel", "parallel"]} ins(%expand_shape_81, %31 : memref<1x2x1x1024x128xf32>, memref<1x2x6x1024x128xf32>) outs(%alloc_82 : memref<1x2x6x1024x128xf32>) {
    ^bb0(%in: f32, %in_3369: f32, %out: f32):
      %778 = arith.addf %in, %in_3369 : f32
      linalg.yield %778 : f32
    }
    %collapse_shape_83 = memref.collapse_shape %alloc_82 [[0], [1, 2], [3], [4]] : memref<1x2x6x1024x128xf32> into memref<1x12x1024x128xf32>
    %cst_84 = arith.constant 0.000000e+00 : f32
    %32 = memref.get_global @__constant_1024x1024xf32_0 : memref<1024x1024xf32>
